{
  "model_name": "gpt2",
  "vocab_size": 50257,
  "token_to_id": {
    "Ġupdate": 4296,
    "Ġcomply": 11997,
    "bin": 8800,
    "usive": 11350,
    "Ġthreatening": 11123,
    "speaking": 25159,
    "Ġemot": 4085,
    "ĠQuestion": 18233,
    "Ġconspicuous": 39089,
    "atmeal": 45280,
    "------------": 10541,
    "Ġzero": 6632,
    "Ġpair": 5166,
    "bec": 9423,
    "Veter": 45182,
    "Ġsimul": 39698,
    "ĠRex": 17853,
    "954": 48372,
    "Ġfly": 6129,
    "Ġcommitments": 19405,
    "Ġreve": 2697,
    "Ġcontestants": 37851,
    "ĠGeh": 49588,
    "Ġmultim": 43104,
    "ď": 203,
    "Ġfrontrunner": 49981,
    "Ġbatter": 4984,
    "ĠRoyale": 49982,
    "laws": 29317,
    "Ġhairs": 32908,
    "ĠGuns": 20423,
    "env": 24330,
    "ĠFur": 22384,
    "ĠexternalTo": 30208,
    "ipop": 42800,
    "aine": 5718,
    "nosis": 31707,
    "ordinary": 35947,
    "Ġminim": 10356,
    "ĠâĢķ": 21096,
    "152": 17827,
    "Ġprescribed": 14798,
    "ĠRodriguez": 19391,
    "ĠSQU": 45880,
    "ĠTrade": 9601,
    "Adds": 46245,
    "19": 1129,
    "ĠVER": 33310,
    "Drug": 37943,
    "current": 14421,
    "Ġgender": 5279,
    "Ġviolin": 38283,
    "({": 15090,
    "Ġfish": 5916,
    "Ġpraising": 33557,
    "Ġstorage": 6143,
    "Jen": 44875,
    "ukes": 31469,
    "ĠSeason": 7369,
    "KNOWN": 44706,
    "Ġki": 47748,
    "Elsewhere": 49374,
    "Ġ))": 15306,
    "Ġallowing": 5086,
    "Ġtf": 48700,
    "Ġpron": 9668,
    "King": 15708,
    "Ġsymptom": 25993,
    "Tri": 14824,
    "Ġtemperature": 5951,
    "BW": 48802,
    "Ġblight": 42514,
    "protein": 48693,
    "Ġmonog": 43173,
    "Ġpsychiatrist": 31207,
    "ĠPulse": 25062,
    "agan": 7329,
    "ACT": 10659,
    "ĠRomantic": 49039,
    "Ġvisitor": 21493,
    "otics": 23891,
    "Ġcontext": 4732,
    "Ġdelusions": 47456,
    "Ġextends": 14582,
    "ãĤ»": 47271,
    "Ġtranslation": 11059,
    "ĠRelax": 46883,
    "Ġchuckle": 43355,
    "583": 46239,
    "ĠCRE": 29244,
    "ĠArchdemon": 44555,
    "Ġconcussion": 27502,
    "niper": 45554,
    "Ġtook": 1718,
    "ĠTrial": 21960,
    "ĠLauder": 39212,
    "vs": 14259,
    "Ġspinach": 39129,
    "alach": 33786,
    "Ġcel": 18725,
    "Ġpa": 14187,
    "Ġeval": 5418,
    "ĠHealing": 22508,
    "Ġpronunciation": 41694,
    "ĠCAP": 20176,
    "Ġabused": 15519,
    "Ġrejected": 8606,
    "Tre": 31055,
    "Ġviews": 5009,
    "MEN": 49275,
    "Asset": 45869,
    "ĠAuschwitz": 37992,
    "gard": 19977,
    "Ġcons": 762,
    "ifully": 17049,
    "?:": 27514,
    "overs": 13801,
    "ĠContracts": 49199,
    "Ġtickets": 8587,
    "was": 9776,
    "Ġcompliant": 31332,
    "Ġembarrass": 9614,
    "Tor": 15884,
    "Ġassailant": 45800,
    "Ġrodents": 41093,
    "Ġcoup": 12092,
    "ĠDrivers": 36577,
    "Tom": 13787,
    "ĠBasketball": 25911,
    "Ġhandles": 17105,
    "Ġtherapists": 39395,
    "ĠGeek": 33639,
    "@@@@": 22675,
    "ĠWalter": 15819,
    "FA": 7708,
    "ĠARC": 43928,
    "ĠDim": 14048,
    "FW": 24160,
    "Ġburned": 11544,
    "ĠTwins": 29640,
    "icidal": 21488,
    "ĠNil": 29213,
    "Ġen": 551,
    "ographer": 18539,
    "Ġborders": 11637,
    "ĠReaction": 39912,
    "training": 34409,
    "h": 71,
    "ĠFRI": 48167,
    "Ġsector": 6567,
    "Ġminer": 16285,
    "squ": 16485,
    "Ġsummed": 32794,
    "yk": 48361,
    "Ġexactly": 3446,
    "ela": 10304,
    "ĠAAP": 31518,
    "Js": 49044,
    "Ġtransport": 4839,
    "Ġdistilled": 41009,
    "73": 4790,
    "Ġarrange": 21674,
    "Ġboards": 11490,
    "Specific": 32419,
    "Ġjewels": 42701,
    "ĠSailor": 45924,
    "ĠÎ": 7377,
    "Ġelectrodes": 39780,
    "enc": 12685,
    "Ġ2022": 33160,
    "ĠFor": 1114,
    "Ġpursued": 19189,
    "Ġpurposely": 39033,
    "position": 9150,
    "Ġadolescents": 25447,
    "These": 4711,
    "uki": 11308,
    "agy": 46671,
    "ĠFinding": 27063,
    "Ġhandheld": 33811,
    "Ġpeel": 31738,
    "uation": 2288,
    "Ġes": 1658,
    "are": 533,
    "Kid": 48374,
    "Ġdag": 48924,
    "Ġacidic": 42987,
    "Ġfinances": 20903,
    "uilt": 21955,
    "duration": 32257,
    "Ġdesolate": 50244,
    "ĠPoss": 29265,
    "Ġstarted": 2067,
    "Ġsmooth": 7209,
    "ĠSYSTEM": 36230,
    "Ġhugging": 46292,
    "JO": 45006,
    "Ġembod": 13968,
    "Ġdomains": 18209,
    "780": 40873,
    "cell": 3846,
    "ĠClare": 22736,
    "nesia": 31401,
    "posts": 24875,
    "Ġexpenditures": 22895,
    "Ġmeter": 16430,
    "Ġcharged": 5047,
    "gun": 7145,
    "783": 50165,
    "ĠVish": 36900,
    "ĠAds": 47442,
    "OTO": 26631,
    "Ġleaf": 12835,
    "fed": 19082,
    "Ġ263": 39135,
    "Ġcircular": 18620,
    "ermott": 46187,
    "yrinth": 21324,
    "column": 28665,
    "price": 20888,
    "Ġstreng": 3472,
    "imsy": 48295,
    "Ġmalnutrition": 49290,
    "Ġfatig": 46291,
    "acious": 14209,
    "ĠTables": 33220,
    "Ġhamstring": 36744,
    "Ġinsane": 13251,
    "ARC": 25793,
    "credit": 43082,
    "Ġretained": 17383,
    "Ġable": 1498,
    "ĠEscape": 14473,
    "Ġentit": 26189,
    "abyte": 37828,
    "Latest": 39478,
    "Ġlinking": 17795,
    "Ġpree": 47488,
    "ĠSaras": 40457,
    "Ġboobs": 41050,
    "ĠRitual": 35179,
    "Ġpeaked": 33948,
    "Ġinterview": 2720,
    "Ġforbid": 33277,
    "ĠUPDATE": 35717,
    "iac": 9607,
    "%);": 49563,
    "ĠEspecially": 18948,
    "ILA": 47164,
    "ĠCind": 24445,
    "ĠCoil": 46639,
    "ãĤ·ãĥ£": 39467,
    "Ġparalysis": 35858,
    "Ġuphold": 24963,
    "Ġleftist": 28318,
    "collar": 37676,
    "Ġfaculty": 12829,
    "Ġdiscretion": 14130,
    "ami": 6277,
    "ĠJacob": 12806,
    "nsics": 49242,
    "Ġarchitectures": 45619,
    "Ġwhistleblowers": 46147,
    "cerning": 41981,
    "ĠKle": 15983,
    "Ġbackup": 11559,
    "ayers": 6962,
    "vasive": 23747,
    "ĠSubway": 38923,
    "BO": 8202,
    "glomer": 37757,
    "uting": 15129,
    "itime": 22552,
    "Ġbackpack": 22526,
    "Ġpracticing": 18207,
    "ĠJur": 23383,
    "nee": 21381,
    "ĠSail": 27783,
    "Ġmids": 49304,
    "ĠLear": 8010,
    "Ġwar": 1175,
    "bodied": 45190,
    "Ġspit": 27591,
    "ĠPrecision": 39281,
    "ãģ®å": 15474,
    "ERAL": 27130,
    "ĠFULL": 34958,
    "ĠPill": 19770,
    "ĠCitizen": 22307,
    "Ġideas": 4213,
    "onential": 35470,
    "anches": 12140,
    "..................": 49129,
    "adish": 48563,
    "ĠConstruct": 28407,
    "ĠTracks": 42259,
    "ĠFlyers": 30652,
    "Ġaversion": 41608,
    "ĠHelena": 42916,
    "Ġlocating": 42139,
    "follow": 27780,
    "Ġrespawn": 42929,
    "ogen": 6644,
    "ropolitan": 14823,
    "ĠCHAR": 28521,
    "Ġtactical": 16106,
    "ĠMulcair": 47402,
    "Ġheck": 22574,
    "ĠLabel": 36052,
    "Ġfetch": 21207,
    "ret": 1186,
    "Ġsucceeds": 31137,
    "esthetic": 37531,
    "Ġcircumst": 5397,
    "Ġoffended": 22231,
    "Bear": 36352,
    "ĠNDP": 20392,
    "Ġclever": 14169,
    "Ġceleb": 10624,
    "Ġhaunted": 26688,
    "Sample": 36674,
    "ĠRevis": 46146,
    "Ġsimpl": 7106,
    "æī": 33699,
    "Ġreson": 14309,
    "Ġshatter": 45131,
    "gado": 50054,
    "Ġquote": 9577,
    "Ġethnic": 9450,
    "AAAAAAAA": 43488,
    "Ġendorse": 11438,
    "Ġimproves": 19575,
    "ĠElm": 35189,
    "ĠBiological": 32827,
    "Ġequals": 21767,
    "Ġreceive": 3328,
    "Ãª": 25792,
    "ĠAGA": 36218,
    "Str": 13290,
    "Ġpars": 13544,
    "ĠRaphael": 37464,
    "Versions": 45150,
    "amel": 17983,
    "inner": 5083,
    "Ġbehaviours": 38975,
    "Ġbelow": 2174,
    "Ġhistorically": 15074,
    "ĠWorm": 28505,
    "ĠBurst": 30635,
    "Ġembodiments": 32403,
    "ĠPanzer": 46294,
    "ĠRules": 14252,
    "cmd": 28758,
    "ĠSample": 27565,
    "Ġport": 2493,
    "virt": 48940,
    "523": 49803,
    "Ġunlike": 5023,
    "isphere": 22833,
    "Ġreplacing": 13586,
    "Ġfair": 3148,
    "require": 46115,
    "so": 568,
    "worm": 25323,
    "Ġlesbians": 34210,
    "ĠEVs": 46229,
    "aps": 1686,
    "ĠCat": 5181,
    "Ġ184": 28598,
    "ĠCreat": 7921,
    "archives": 48814,
    "ĠServices": 6168,
    "Anything": 40028,
    "Ġlibrary": 5888,
    "ĠFinger": 39454,
    "ĠTosh": 47922,
    "ĠApplied": 27684,
    "Ġinvestor": 15811,
    "Ġmillennial": 46451,
    "Ġmelts": 48813,
    "Ġ204": 26956,
    "Ġscrut": 12054,
    "Ġtestimony": 9709,
    "ĠWerner": 48642,
    "Ġoneself": 27186,
    "ĠCodex": 41982,
    "ouston": 6526,
    "Ident": 33234,
    "omal": 18048,
    "DF": 8068,
    "ĪĴ": 7134,
    "Ġcrawled": 45668,
    "Ġpatch": 8529,
    "ĠHoover": 31865,
    "also": 14508,
    "Beh": 25267,
    "give": 26535,
    "Ġplag": 19640,
    "Ġplagiar": 42054,
    "ĠRunes": 48737,
    "Ġac": 936,
    "ĠPaul": 3362,
    "ĠRestaurant": 26078,
    "Ġuse": 779,
    "esley": 49048,
    "ĠHum": 11054,
    "coll": 26000,
    "ablished": 22555,
    "ĠSlug": 41635,
    "ĠSicily": 49301,
    "ĠTeddy": 29345,
    "recy": 20568,
    "Ġreap": 35860,
    "Ġvibe": 27426,
    "Ġfascination": 35556,
    "Ġvibr": 12611,
    "Ġdie": 4656,
    "Ġbegg": 44887,
    "ĠFundamental": 49983,
    "hospital": 49257,
    "Ġkitten": 42143,
    "tests": 41989,
    "listed": 17935,
    "ĠLyme": 46401,
    "2006": 13330,
    "Ġpublishes": 34134,
    "ĠBundy": 35259,
    "Ġcontin": 1261,
    "ĠIly": 49804,
    "Ġreporters": 7638,
    "Ġcens": 12428,
    "ÙĲ": 44208,
    "////////////////": 27246,
    "ĠShadows": 18037,
    "esse": 35270,
    "ctor": 2715,
    "Ġ405": 36966,
    "Vol": 16598,
    "ensus": 7314,
    "Ġeyes": 2951,
    "rig": 4359,
    "trak": 44195,
    "Ġhappens": 4325,
    "Ġdecreasing": 24030,
    "Ġcontraception": 27503,
    "ieft": 49868,
    "Ġresources": 4133,
    "Ġpse": 15838,
    "ĠGalile": 32422,
    "ĠTexas": 3936,
    "Monitor": 35479,
    "ida": 3755,
    "ĠPlant": 16561,
    "ĠZh": 10511,
    "ĠLines": 26299,
    "Pause": 49991,
    "ĠAncients": 46966,
    "ĠSolitaire": 28762,
    "Ġgasoline": 21408,
    "ĠVery": 9576,
    "ĠJo": 5302,
    "Ġmage": 29241,
    "shirts": 23231,
    "ĠDragonbound": 17900,
    "keye": 34929,
    "Ġharmful": 13568,
    "Ġjudge": 5052,
    "Ġfrequ": 3593,
    "Steve": 19206,
    "ĠMechan": 13438,
    "oc": 420,
    "ĠShang": 45797,
    "Ġfulfilling": 26187,
    "Ġ900": 15897,
    "relative": 43762,
    "Craft": 14467,
    "ĠSubtle": 47419,
    "Less": 22058,
    "Ġgrade": 9559,
    "Ġreplen": 35278,
    "Ġhard": 1327,
    "ĠPhysicians": 46206,
    "Ġreview": 2423,
    "Ġoffending": 30810,
    "å¹": 33176,
    "Ġseveral": 1811,
    "ĠJava": 7349,
    "Ġplaintiffs": 21880,
    "ĠProposition": 44056,
    "Ġsh": 427,
    "Ġspur": 26724,
    "five": 13261,
    "ĠKejriwal": 42792,
    "ĠWicked": 42956,
    "ĠMald": 37490,
    "Ġfacebook": 23960,
    "ĠSt": 520,
    "Ġfrustrations": 40447,
    "Ġcal": 2386,
    "Ġhelic": 11573,
    "Ġpetrol": 34139,
    "Ġsinks": 38614,
    "007": 25816,
    "Ġvowed": 19982,
    "Ġamenities": 35468,
    "ĠMunich": 22418,
    "Ġadmits": 15534,
    "Ġnewer": 15064,
    "oglu": 49006,
    "ked": 9091,
    "Ġguardians": 32769,
    "Ġonline": 2691,
    "Ġreserv": 5463,
    "ÃŃa": 29690,
    "Ġcrore": 22306,
    "ĠDuffy": 35829,
    "Ġmolecular": 18955,
    "ĠBab": 12400,
    "ĠNeb": 29837,
    "respect": 15008,
    "ĠLion": 15218,
    "Ġdenominations": 49735,
    "Ã§": 16175,
    "Whether": 15354,
    "Ġineffective": 23693,
    "founder": 15454,
    "ĠLegend": 9883,
    "minus": 40191,
    "title": 7839,
    "ĠMuss": 43309,
    "professional": 33163,
    "ignore": 46430,
    "Ø": 148,
    "Ġfavoring": 43567,
    "usk": 17990,
    "ĠNGO": 22142,
    "432": 45331,
    "ĠQR": 42137,
    "cf": 12993,
    "abin": 6014,
    "Ġextant": 47862,
    "ĠAmmunition": 41411,
    "inc": 1939,
    "ĠSalman": 31995,
    "ĠTess": 39412,
    "LIN": 34509,
    "Ġtrademark": 16028,
    "nect": 1606,
    "ĠSwedish": 14023,
    "Richard": 22245,
    "Ġexceeds": 21695,
    "ĠPatty": 42417,
    "ĠMining": 29269,
    "Ġendeavour": 47054,
    "mobile": 24896,
    "ĠIch": 26364,
    "Ġvideog": 36342,
    "Ġdependency": 20203,
    "mediate": 13857,
    "Capture": 49630,
    "Hispanic": 43830,
    "Ġplunge": 32669,
    "ĠBacon": 28548,
    "Ġpits": 29699,
    "Ġporous": 48242,
    "Ġadjunct": 44737,
    "thank": 40716,
    "Ġarguments": 7159,
    "Ġepile": 29790,
    "Ġwrit": 1991,
    "ĠRouter": 48538,
    "568": 49211,
    "oggles": 48549,
    "ĠTroy": 21439,
    "Ġjuice": 13135,
    "ĠCPS": 32084,
    "ĠTorch": 34868,
    "Ġinsert": 7550,
    "problem": 45573,
    "Ġslap": 23905,
    "e": 68,
    "Ġsell": 3677,
    "ĠAlaska": 12926,
    "Ġbackwards": 16196,
    "----------------------------------------------------------------": 10097,
    "Social": 20636,
    "ĠAkira": 46910,
    "ĠBlossom": 35544,
    "skin": 20407,
    "idates": 37051,
    "Ġextrem": 8963,
    "Ġpack": 2353,
    "Ġ378": 45473,
    "Ġequ": 1602,
    "am": 321,
    "ĠAI": 9552,
    "493": 43134,
    "Ġmilk": 7545,
    "Ġpresumption": 35467,
    "Ġmandated": 28853,
    "ĠHercules": 32795,
    "Ġpreschool": 38725,
    "Ġsizeable": 47225,
    "Ġlivest": 20532,
    "Ġsexually": 11363,
    "May": 6747,
    "Ġshame": 10195,
    "157": 18458,
    "Ġgenerational": 48837,
    "Ġ)": 1267,
    "Ġnamesake": 49829,
    "Ġpostage": 48552,
    "ĠVirus": 40584,
    "alking": 18998,
    "ĠDust": 16240,
    "*/(": 40278,
    "381": 36626,
    "ĠPosts": 12043,
    "raped": 31951,
    "Ġspacious": 40894,
    "ĠBattery": 23490,
    "ĠArchbishop": 36746,
    "Ġaccompl": 6424,
    "amaru": 46893,
    "Ġcompeting": 11780,
    "ĠCoral": 41390,
    "ĠHousing": 16797,
    "Ġ185": 22855,
    "adoes": 46368,
    "ĠCOUNTY": 41012,
    "Ġmunicipal": 13474,
    "Ġfed": 11672,
    "ĠVox": 28035,
    "December": 20588,
    "ĠKrish": 31372,
    "283": 30290,
    "Ġinherently": 20108,
    "Ġscholarly": 31950,
    "ĠSide": 12075,
    "ĠUnreal": 42536,
    "ĠHorses": 49122,
    "connected": 15236,
    "ĠChamber": 15840,
    "ĠSurvivors": 45998,
    "Ġhapl": 42519,
    "ĠMacBook": 28084,
    "ĠWra": 27323,
    "ĠSloven": 30694,
    "Ġlight": 1657,
    "erry": 6996,
    "ĠIPv": 25961,
    "interstitial": 29446,
    "éļ": 49694,
    "ĠStout": 40275,
    "research": 34033,
    "Ġabove": 2029,
    "ĠMao": 22828,
    "akespeare": 20946,
    "cb": 21101,
    "Ġultrasound": 37721,
    "Ġni": 37628,
    "td": 8671,
    "NL": 32572,
    "Ġhandwriting": 44396,
    "Ġlarg": 2552,
    "ĠAmy": 14235,
    "ĠUnfortunately": 8989,
    "JOHN": 47118,
    "Ġunprecedented": 13029,
    "?\"": 1701,
    "Ġparameter": 11507,
    "Ġhomer": 44155,
    "ĠLatino": 20496,
    "Ġcultivate": 32237,
    "ĠPeggy": 40910,
    "ĠFib": 41566,
    "ĠSTR": 19269,
    "Ġdefeated": 9772,
    "Ġinstructions": 7729,
    "ĠBerman": 43859,
    "Phil": 18673,
    "arden": 5872,
    "Ġeagerly": 30130,
    "Ġdistributed": 9387,
    "boarding": 27794,
    "Ġbook": 1492,
    "Ġpolic": 1825,
    "sp": 2777,
    "iton": 37752,
    "We": 1135,
    "ĠDeng": 41985,
    "Assistant": 48902,
    "ĠGod": 1793,
    "ĠRepe": 30558,
    "ĠJian": 40922,
    "ĠLos": 5401,
    "003": 11245,
    "ÅŁ": 46481,
    "igned": 3916,
    "ousing": 12752,
    "Ġspoiler": 34192,
    "Ġresidences": 45402,
    "Ġvalve": 22580,
    "Ġpromotional": 18767,
    "Ġ/>": 11037,
    "Ġdesserts": 47950,
    "ĠDOE": 46984,
    "Ġprecipitation": 32025,
    "Ġnested": 28376,
    "Ġfide": 43340,
    "ĠChattanooga": 45851,
    "Ġstared": 18484,
    "Ġ292": 41569,
    "ĠInflu": 46631,
    "ĠTour": 9852,
    "Ġresonance": 29371,
    "ĠAncient": 13406,
    "Ġfaults": 31025,
    "Ġunve": 13581,
    "Ġthief": 25906,
    "Ġdow": 47276,
    "JECT": 23680,
    "ĠSIM": 23749,
    "Ġpreserving": 23934,
    "Ġarrested": 5169,
    "ĠPink": 14657,
    "ception": 4516,
    "Ġaccomplish": 9989,
    "è": 164,
    "ĠHicks": 31750,
    "Ġswim": 9422,
    "made": 9727,
    "attled": 43535,
    "Ġneatly": 29776,
    "Ġhen": 30963,
    "ĠDOWN": 30320,
    "ĠSantorum": 34008,
    "committee": 26799,
    "Ġget": 651,
    "ĠKam": 12670,
    "Ġfield": 2214,
    "Ġclar": 10212,
    "ĠHamp": 13039,
    "athering": 25545,
    "Ġconquest": 29179,
    "miss": 3927,
    "Î": 138,
    "Ġentire": 2104,
    "ĠLibre": 44384,
    "Quant": 24915,
    "245": 22995,
    "Ġ55": 5996,
    "ĠNL": 22879,
    "bool": 30388,
    "ĠAsus": 46301,
    "Ġimprisonment": 16510,
    "ĠTie": 36286,
    "ĠRodney": 34895,
    "Ġoutskirts": 30140,
    "Ġauctions": 48043,
    "ĠTreat": 11217,
    "Ġextinct": 28881,
    "leigh": 42342,
    "Ġchef": 21221,
    "hy": 12114,
    "Ġtying": 28379,
    "Have": 11980,
    "Ġlabou": 45161,
    "ĠSolutions": 23555,
    "mc": 23209,
    "ĠPE": 18468,
    "Ġopera": 27296,
    "Ġfa": 24685,
    "worst": 41430,
    "blogspot": 35217,
    "Ġopenly": 11764,
    "ĠEuropa": 29890,
    "Ġhealth": 1535,
    "Ġrifles": 18469,
    "ĠSikh": 34629,
    "ZI": 48926,
    "orget": 28122,
    "Ġreleases": 10050,
    "Enter": 17469,
    "ĠIzan": 35144,
    "inter": 3849,
    "akery": 33684,
    "Ġscourge": 50185,
    "Uk": 28425,
    "ITIES": 30383,
    "Ġmedial": 48174,
    "FOR": 13775,
    "Ġsuggests": 5644,
    "ĠLB": 22199,
    "Ġharm": 4419,
    "ĠJaime": 38028,
    "ĠIk": 32840,
    "Ġhours": 2250,
    "Ġcapitalist": 15098,
    "Ġattempts": 6370,
    "ĠSilva": 23720,
    "Ġcoffin": 30834,
    "isf": 4468,
    "stasy": 31695,
    "Ġreveal": 7766,
    "ishes": 5614,
    "ĠPapers": 27420,
    "Ġunequal": 37334,
    "Ġabolished": 32424,
    "Ġgrateful": 14066,
    "ĠChurchill": 25987,
    "ĠYOUR": 16592,
    "ĠCrunch": 38531,
    "Ġcalcium": 19700,
    "Ġaftermath": 16280,
    "requently": 37971,
    "ĠNUM": 36871,
    "achi": 14299,
    "ĠIntervention": 43673,
    "Ġsignals": 10425,
    "Ġburgeoning": 38935,
    "isc": 2304,
    "con": 1102,
    "ĠJos": 22568,
    "OT": 2394,
    "026": 45987,
    "ĠCookies": 45305,
    "é": 165,
    "ĠFunk": 37299,
    "Ġspeaker": 10834,
    "wei": 42990,
    "See": 6214,
    "Ġmaybe": 3863,
    "FC": 4851,
    "quez": 22281,
    "ĠInstitute": 5136,
    "Ġraiding": 48717,
    "ĠUb": 12021,
    "Ġnegotiated": 22368,
    "ĠAccounting": 40964,
    "96": 4846,
    "func": 20786,
    "Br": 9414,
    "hr": 11840,
    "ĠSunshine": 32210,
    "Pre": 6719,
    "Ġcyl": 17327,
    "Ġ72": 7724,
    "Ġmulti": 5021,
    "NPR": 38588,
    "528": 49351,
    "lection": 1564,
    "iatus": 34704,
    "Ġceilings": 45926,
    "Over": 5886,
    "ĠColors": 29792,
    "rossover": 23954,
    "ĠSTATE": 35454,
    "oad": 1170,
    "ĠGar": 7164,
    "ĠEnding": 43626,
    "Ġattached": 7223,
    "Att": 8086,
    "Ġfleet": 11026,
    "Ġflavour": 29254,
    "Ġirritated": 38635,
    "289": 27693,
    "ĠCors": 26978,
    "ĠTexture": 44409,
    "ĠAnimals": 25390,
    "BILITIES": 49516,
    "avor": 5570,
    "ãĤ§": 24806,
    "</": 3556,
    "olving": 10890,
    "Ġscared": 12008,
    "ĠIPCC": 35814,
    "ĠCause": 24228,
    "ĠID": 4522,
    "Ġruling": 6922,
    "boxing": 45471,
    "cence": 43696,
    "ĠBrett": 18726,
    "Ġoutage": 46281,
    "ĠMSNBC": 22128,
    "Jer": 36134,
    "Ġpsychological": 10590,
    "ĠIndianapolis": 19362,
    "Ġmarkers": 19736,
    "robat": 40655,
    "Ġnegotiating": 19025,
    "Street": 34356,
    "Ġsorce": 32892,
    "ĠTobias": 46675,
    "ĠAth": 13548,
    "ĠEater": 40366,
    "Ġthwart": 36162,
    "XY": 34278,
    "every": 16833,
    "ĠMerkel": 18263,
    "Ġspan": 11506,
    "Ġprolong": 16761,
    "atana": 43777,
    "Ġcreeps": 49100,
    "Ġracing": 11717,
    "ĠHybrid": 29481,
    "Ko": 48735,
    "ĠSecure": 26707,
    "ĠBurning": 21460,
    "ĠBand": 10243,
    "ĠSuperman": 14951,
    "drm": 49007,
    "weight": 6551,
    "Loader": 17401,
    "Ġclauses": 31485,
    "Ġresilience": 31307,
    "ĠStafford": 30596,
    "edly": 49288,
    "ĠKan": 14248,
    "rub": 25089,
    "Ġeq": 37430,
    "ĠZhang": 19439,
    "ĠANY": 15529,
    "Ġmakes": 1838,
    "Ġhobby": 20005,
    "Ġdrills": 26721,
    "ĠArsenal": 13837,
    "SAY": 27358,
    "Ġloudly": 23112,
    "572": 48724,
    "Ġpl": 458,
    "otto": 17631,
    "Women": 18495,
    "ubs": 23161,
    "Ġbeast": 13824,
    "Giving": 49701,
    "Laun": 46182,
    "Ġturret": 28101,
    "my": 1820,
    "Ġtraits": 12796,
    "ĠMichaels": 44768,
    "ĠLau": 40014,
    "ĠCul": 32559,
    "ActionCode": 31573,
    "ich": 488,
    "Led": 42416,
    "ĠRobot": 16071,
    "Ġedible": 35988,
    "112": 14686,
    "Ġharmless": 23585,
    "Ġgallon": 26860,
    "Ġ1975": 15231,
    "intensive": 38096,
    "Repl": 39232,
    "Ġhacks": 30445,
    "Ġbalance": 5236,
    "ĠSE": 7946,
    "Ġcaf": 19945,
    "SEE": 36078,
    "ĠJulio": 48273,
    "ĠExpert": 25516,
    "Ġinjure": 42206,
    "ĠTwo": 4930,
    "Ġegg": 5935,
    "iq": 25011,
    "Ġunpublished": 42686,
    "Ġtransf": 13501,
    "ĠAir": 3701,
    "Ġrushed": 13999,
    "fac": 38942,
    "ĠSECTION": 44513,
    "Ġveterinarian": 41404,
    "Ġfinally": 3443,
    "ĠBRE": 29377,
    "Out": 7975,
    "Ġunexplained": 43286,
    "Ġcure": 13996,
    "ĠMoral": 39020,
    "ĠNew": 968,
    "ĠGranted": 38842,
    "Ġrespectable": 27721,
    "Ġ=": 796,
    "ĠAS": 7054,
    "awan": 43004,
    "Ġso": 523,
    "Ġ33": 4747,
    "ĠPradesh": 25945,
    "ESPN": 31730,
    "ĠLoading": 12320,
    "ĠCW": 24006,
    "00007": 44808,
    "phys": 34411,
    "Ġthrough": 832,
    "Ġrental": 14447,
    "ĠLutheran": 43772,
    "Ni": 34153,
    "Ġhypocrisy": 29442,
    "Ġentreprene": 11548,
    "eder": 5702,
    "ĠHannibal": 41949,
    "ĠBench": 25187,
    "Ġwins": 7864,
    "Ġtrailed": 40060,
    "INC": 30158,
    "Score": 26595,
    "Ġutilizing": 25137,
    "ĠSponsor": 23389,
    "tted": 28734,
    "ĠThiel": 42511,
    "Ġchance": 2863,
    "ĠGig": 19525,
    "Ġtier": 14249,
    "Ġblankets": 34794,
    "Ġvanish": 39572,
    "Ġbund": 12207,
    "iator": 38585,
    "Ġdespite": 3805,
    "Ġknife": 9845,
    "Ġrepresentative": 8852,
    "Ġluxury": 13064,
    "Ġheterosexual": 24026,
    "Ġslash": 24632,
    "ĠSciences": 13473,
    "Sch": 14874,
    "Ġlawyers": 9326,
    "leen": 20042,
    "ĠSpecies": 28540,
    "abetic": 33312,
    "ĠAng": 2895,
    "packs": 32377,
    "âĸ¬âĸ¬": 49843,
    "Ġencoding": 21004,
    "Ġscholarship": 18652,
    "Ġrelationships": 6958,
    "ivated": 30829,
    "ĠSA": 14719,
    "effective": 16803,
    "Ġnames": 3891,
    "govern": 47866,
    "ĠAme": 38561,
    "Ġerror": 4049,
    "opted": 45256,
    "ĠROS": 48263,
    "Ġlimitless": 44176,
    "Ġmounted": 12623,
    "Ġappeared": 4120,
    "ĠPent": 9696,
    "Ġlegislator": 44840,
    "Ġtissue": 10712,
    "Ġpreset": 38266,
    "Ġmammals": 23426,
    "Ġpaused": 24487,
    "Ġsuspicious": 13678,
    "ĠRemove": 17220,
    "Lt": 49578,
    "ĠLV": 24981,
    "Directory": 43055,
    "ĠKurds": 23880,
    "ablishment": 25380,
    "La": 14772,
    "Ġachie": 3302,
    "ĠChal": 30529,
    "Ġnine": 5193,
    "ĠFaster": 38996,
    "ĠInside": 14384,
    "Ġvalued": 17560,
    "Ġcraw": 27784,
    "Ġfriendships": 34596,
    "ĠISP": 33086,
    "Ġfriendship": 14738,
    "mess": 37348,
    "ĠKimberly": 48685,
    "Ġassisted": 18419,
    "Ġrespected": 14462,
    "ĠCris": 15088,
    "ĠTue": 30030,
    "Ġclassified": 10090,
    "Ġessence": 12799,
    "Ġengine": 3113,
    "Ġuncom": 8820,
    "respond": 5546,
    "Ġdecided": 3066,
    "ucing": 25648,
    "ou": 280,
    "Ġmask": 9335,
    "Ġlake": 13546,
    "Ġsten": 45219,
    "Ġbankrupt": 13158,
    "ibus": 26333,
    "Ġuncovered": 18838,
    "Ġants": 27842,
    "endars": 44942,
    "Ġstoring": 23069,
    "ĠKendall": 36779,
    "Ġparked": 19584,
    "Ġchew": 34722,
    "mails": 26165,
    "Bat": 24541,
    "Fax": 46512,
    "Status": 19580,
    "ĠPhar": 48141,
    "ãĢĳ": 31817,
    "partisan": 28226,
    "Ġsmiles": 21845,
    "Ġacademia": 34326,
    "ĠOlson": 31530,
    "ETHOD": 36252,
    "Ġmasks": 20680,
    "C": 34,
    "toe": 44579,
    "agons": 34765,
    "Ġtechniques": 7605,
    "Ġshades": 23787,
    "Ġdismissed": 11126,
    "ĠPercent": 22512,
    "Ġjog": 48342,
    "resistant": 26128,
    "674": 45385,
    "ĠGenocide": 48721,
    "ENC": 24181,
    "Ġsite": 2524,
    "ĠMcN": 22586,
    "ĠAssociated": 10575,
    "Ġvou": 25211,
    "urtle": 17964,
    "THER": 21250,
    "ĠProspect": 26736,
    "aldehyde": 44895,
    "Row": 25166,
    "Ġarchaic": 40435,
    "ĠScotch": 46755,
    "ĠJerome": 33617,
    "ĠMJ": 33974,
    "Ġelectoral": 13901,
    "ottest": 24879,
    "haar": 42948,
    "ĠBecame": 30769,
    "Ġtwins": 20345,
    "Ġall": 477,
    "igue": 15212,
    "ĠSwansea": 36019,
    "fn": 22184,
    "Ġtwisted": 19074,
    "ĠTip": 23095,
    "ĠRead": 4149,
    "ĠSidd": 44487,
    "soDeliveryDate": 39811,
    "ĠBuy": 11763,
    "Ġintertw": 39458,
    "Ġwalls": 7714,
    "audio": 24051,
    "Ġbin": 9874,
    "472": 37856,
    "Ġbaptism": 33422,
    "ill": 359,
    "ĠAZ": 26253,
    "Ġwaited": 13488,
    "bach": 19496,
    "ysc": 28349,
    "Ġseek": 5380,
    "Ġstruct": 2878,
    "Ġdevoted": 13378,
    "Ġeffortlessly": 42241,
    "Ġdisorderly": 46191,
    "umbled": 11137,
    "Record": 23739,
    "Ġgrandchildren": 28986,
    "organized": 30280,
    "ĠBod": 26285,
    "ĠHeard": 49417,
    "Ġsmile": 8212,
    "ĠAnniversary": 21967,
    "Effects": 47738,
    "ĠOversight": 35968,
    "ĠBread": 28731,
    "Ġgoing": 1016,
    "ĠMandal": 41715,
    "yu": 24767,
    "ĠChim": 28466,
    "Ġpanc": 22154,
    "ĠParadise": 20494,
    "ĠFlynn": 14654,
    "gren": 32762,
    "ĠLands": 24182,
    "incial": 13744,
    "sted": 30679,
    "ĠTransaction": 45389,
    "Ġrejecting": 26734,
    "Time": 7575,
    "atoon": 23122,
    "Ġdice": 17963,
    "Ġsurrounding": 7346,
    "ĠDealer": 44480,
    "fect": 2309,
    "Jane": 41083,
    "packages": 43789,
    "Ġquasi": 32551,
    "ĠMongo": 42591,
    "away": 8272,
    "ĠJamie": 17826,
    "ĠCab": 15976,
    "EGIN": 43312,
    "noon": 6357,
    "Ġwriting": 3597,
    "ivating": 39438,
    "Ġreddit": 18374,
    "Ġdeliberations": 45863,
    "Ġsolder": 42809,
    "ĠMason": 14737,
    "strom": 20282,
    "leck": 40667,
    "fresh": 48797,
    "Isn": 41451,
    "astrous": 20168,
    "Ġdifficulties": 13156,
    "Ġetched": 48755,
    "Ġpor": 16964,
    "disable": 40223,
    "ĠJoker": 23582,
    "ivid": 1699,
    "attery": 16296,
    "Ġcoded": 30817,
    "Ġcounselors": 44135,
    "ĠChrist": 1951,
    "ĠNaz": 12819,
    "Ġregardless": 7692,
    "Ġpride": 11293,
    "rha": 30268,
    "ĠKeep": 9175,
    "Ġartisan": 43259,
    "ä»£": 47987,
    "riv": 15104,
    "Ġwithdrawals": 43939,
    "Ġ<=": 19841,
    "Ġcourageous": 34010,
    "crete": 38669,
    "Ġreviews": 8088,
    "Ġdistricts": 12815,
    "edes": 37507,
    "ĠPrepare": 43426,
    "ĠâĢİ": 24398,
    "Ġported": 49702,
    "Ġslander": 47397,
    "Ġguarantees": 19026,
    "Ġactress": 14549,
    "Ġshrunk": 38900,
    "REP": 35316,
    "services": 30416,
    "Please": 5492,
    "Ġstudy": 2050,
    "Ġheavenly": 32271,
    "oot": 1025,
    "Ġdisputes": 18563,
    "measures": 47336,
    "628": 48200,
    "ĠColeman": 22687,
    "Ġfountain": 29420,
    "YouTube": 33869,
    "exit": 37023,
    "ĠHearing": 34663,
    "Ġsurrendered": 29209,
    "Ġinsult": 13277,
    "ĠDamien": 46107,
    "Ġinsist": 16361,
    "Ġ1880": 34865,
    "Cos": 36734,
    "Ġlaws": 3657,
    "ĠKol": 25910,
    "lists": 20713,
    "Title": 19160,
    "ĠPaleo": 46840,
    "Ġfinancial": 3176,
    "designed": 30473,
    "Sil": 15086,
    "Ġvoid": 7951,
    "Ġfn": 24714,
    "memory": 31673,
    "Ġdownt": 8039,
    "igraph": 45920,
    "Ġsized": 19943,
    "Ġ(#": 17426,
    "ĠOle": 30093,
    "ĠManuel": 25995,
    "city": 19205,
    "Ġsubter": 43148,
    "ĠSquirrel": 44259,
    "cdn": 32341,
    "Ġshareholders": 19195,
    "mpeg": 43913,
    "las": 21921,
    "ĠKO": 21054,
    "Ġadults": 6490,
    "Ġabsorb": 17565,
    "Loop": 39516,
    "ipolar": 49133,
    "Ġluc": 17115,
    "Ġbooster": 30430,
    "ĠJFK": 35216,
    "Elsa": 49050,
    "ĠFamilies": 25813,
    "Ġacknow": 5571,
    "Wh": 1199,
    "addle": 37382,
    "eri": 33442,
    "Invest": 19070,
    "ht": 4352,
    "arkin": 39027,
    "Ġsemifinals": 47633,
    "Ġdh": 34590,
    "ĠComed": 37024,
    "abiding": 43056,
    "ĠWindsor": 31561,
    "âĨ": 29705,
    "ĠMalik": 31745,
    "ubb": 33670,
    "Ġinfiltration": 45106,
    "Ġ1965": 17672,
    "Ġpri": 1293,
    "Ġang": 3550,
    "Ġfateful": 46873,
    "ĠHT": 7154,
    "Ġtranquil": 46944,
    "iler": 5329,
    "Ġno": 645,
    "widget": 42655,
    "Ġ();": 13979,
    "ĠZionism": 48394,
    "someone": 46248,
    "ociation": 41003,
    "armac": 32813,
    "ĠFern": 38982,
    "ustom": 1824,
    "ĠSinai": 33745,
    "ĠRandolph": 39845,
    "nil": 45991,
    "Ġfiltered": 29083,
    "Krist": 40756,
    "APS": 44580,
    "ĠAure": 43737,
    "ĠNBC": 9716,
    "othe": 20388,
    "Ġ304": 31672,
    "ĠAnalytics": 30437,
    "ĠStaples": 44419,
    "mins": 42951,
    "Ġinauguration": 23166,
    "Ġharshly": 43123,
    "enh": 16550,
    "Ġingrained": 47938,
    "Ġinfancy": 38120,
    "Present": 34695,
    "ether": 6750,
    "aline": 20663,
    "Ġknight": 22062,
    "Ġphysical": 3518,
    "Ġflaw": 11804,
    "ĠIncreases": 23920,
    "Ġrevolutions": 37888,
    "ĠEdgar": 29166,
    "ipes": 18636,
    "Ġsynagogue": 41953,
    "ĠContract": 17453,
    "Ġclusters": 23163,
    "Ġobst": 9710,
    "Ġservers": 9597,
    "Ġmet": 1138,
    "Detroit": 40404,
    "ĠStud": 3604,
    "ĠAlma": 35152,
    "Ġflaws": 17978,
    "Ġsecuring": 19732,
    "Ġbidder": 44848,
    "Ġshack": 32772,
    "Ġstaggering": 23508,
    "ĠPlaying": 23911,
    "ĠWhether": 10127,
    "ĠKeeper": 26335,
    "ilt": 2326,
    "ĠSullivan": 18501,
    "Ġhawk": 48710,
    "Ġesteem": 42213,
    "Ġpromote": 7719,
    "ASS": 10705,
    "ĠOperations": 16205,
    "umenthal": 42300,
    "Ġartwork": 16257,
    "Ark": 42007,
    "lite": 36890,
    "Ġbellig": 45957,
    "sections": 23946,
    "ĠDON": 23917,
    "Ġhijab": 48492,
    "Ġrace": 3234,
    "Ġbasin": 34164,
    "Ġoverw": 6993,
    "Afee": 44314,
    "ĠAboriginal": 26432,
    "Ġmanners": 33558,
    "Interface": 39317,
    "ĠCars": 25277,
    "Ġtrophies": 21732,
    "Ġlogically": 34193,
    "Ġsilicon": 29867,
    "ĠWerewolf": 40261,
    "ĠMarqu": 28382,
    "Ġvehicles": 5672,
    "Ġempath": 48004,
    "ĠDise": 14865,
    "less": 1203,
    "ĠJean": 11320,
    "DEC": 41374,
    "ĠUpload": 36803,
    "Ġempowered": 29669,
    "has": 10134,
    "Ġobedience": 28777,
    "Ġsystemd": 31490,
    "Ġcompass": 31855,
    "Ġadmitted": 6848,
    "ĠSpring": 8225,
    "pecting": 35570,
    "PB": 49079,
    "paced": 32416,
    "ĠLiga": 39249,
    "Ġgobl": 29646,
    "Ġimproper": 18992,
    "moil": 25538,
    "Ġdisorders": 11916,
    "enment": 23242,
    "Ġ112": 13539,
    "Ġattracting": 25142,
    "Ġcard": 2657,
    "username": 29460,
    "spirit": 38685,
    "Ġasteroid": 27460,
    "Ġcare": 1337,
    "ophen": 47806,
    "puter": 10549,
    "Ġenh": 5881,
    "ĠEmpty": 33523,
    "Ġmirrored": 40070,
    "Ġdisagrees": 37868,
    "Ġpose": 12705,
    "Question": 24361,
    "ĠHannity": 35368,
    "Ġnecess": 2418,
    "Ġscrew": 9580,
    "Ġads": 9011,
    "Ġsuper": 2208,
    "Ġresist": 4180,
    "building": 16894,
    "ĠShot": 13590,
    "aic": 18452,
    "ĠPOLIT": 32082,
    "stones": 28750,
    "ĠRU": 46432,
    "·": 115,
    "anian": 38336,
    "ĠGree": 5251,
    "met": 4164,
    "ĠSubst": 24944,
    "Ġubiqu": 23861,
    "Ġmarriages": 20102,
    "ĠCub": 7070,
    "efficient": 16814,
    "eur": 23365,
    "Ġpirates": 27516,
    "ĠSoy": 30022,
    "Ġrevealed": 4602,
    "ĠTestament": 18318,
    "Ġ:)": 14373,
    "ĠMoff": 41069,
    "ĠConsole": 24371,
    "Ġphil": 5206,
    "ĠCharm": 30225,
    "Ġregarding": 5115,
    "oba": 19981,
    "Ġrose": 8278,
    "ĠDhabi": 43941,
    "Beer": 49802,
    "missing": 45688,
    "Ġ...\"": 35713,
    "uh": 7456,
    "acca": 43552,
    "(": 7,
    "Bonus": 29435,
    "ĠLinkedIn": 27133,
    "Ġpivotal": 28992,
    "Ġphoton": 48190,
    "Ġdrilled": 34936,
    "Ġtightening": 36040,
    "ĠInqu": 17193,
    "Ġyak": 46251,
    "ĠMan": 1869,
    "Ġdungeons": 33062,
    "Ġpopulous": 44042,
    "ĠNOTICE": 28536,
    "ĠViv": 25313,
    "Ġmajesty": 48565,
    "teness": 43205,
    "ĠUltr": 46487,
    "Ġpig": 12967,
    "ĠAUT": 47044,
    "ĠHardware": 28715,
    "Ġcipher": 38012,
    "ĠWord": 9678,
    "ĠRange": 13667,
    "Ġsoils": 38750,
    "iqueness": 46764,
    "Ġretrieving": 50122,
    "ĠCraft": 15745,
    "Ġcollects": 26609,
    "prime": 35505,
    "ĠLol": 44841,
    "Ġ(%": 37633,
    "ĠPeaks": 38051,
    "ĠHolden": 43393,
    "Ġemployed": 9322,
    "Ġusher": 36642,
    "Ġslashing": 37714,
    "aum": 26043,
    "Elect": 19453,
    "ĠTechnique": 41317,
    "Ġteaspoons": 47234,
    "å½": 37605,
    "ĠâĤ¬": 10432,
    "ds": 9310,
    "ĠChili": 47107,
    "Ġexhilar": 47029,
    "ĠAFP": 8916,
    "ĠSpells": 30656,
    "Ġforget": 6044,
    "Ġoptimum": 39475,
    "Ġcontestant": 44047,
    "almost": 28177,
    "owered": 10387,
    "ĠCanaan": 47047,
    "Ġrevolt": 27360,
    "Ġamazingly": 32513,
    "ĠOman": 41782,
    "286": 27033,
    "ĠHeist": 50157,
    "Ġoffic": 1163,
    "Ġundis": 24149,
    "ĠguiName": 30202,
    "Ġ133": 22169,
    "layout": 39786,
    "ĠTier": 15917,
    "ĠHuss": 35085,
    "Ġchampionship": 12184,
    "ĠScher": 47956,
    "Ġmaintaining": 10941,
    "]}": 48999,
    "ĠIMAGES": 45325,
    "ãĤ®": 43899,
    "ĠPTSD": 26974,
    "iaries": 18361,
    "Ġbat": 7365,
    "eyes": 48418,
    "Ġmuscular": 27014,
    "ĠPatriots": 13104,
    "ĠDiego": 9500,
    "Ġavoiding": 14928,
    "'.": 4458,
    "clips": 31945,
    "Ġgenitals": 35853,
    "Ġowned": 6898,
    "arian": 3699,
    "cific": 7790,
    "ĠSim": 3184,
    "......": 16317,
    "ĠToronto": 6586,
    "Ġgeneric": 14276,
    "ĠLenovo": 40269,
    "loading": 25138,
    "Ġjarring": 47300,
    "Ġsliced": 26790,
    "ĠEmail": 9570,
    "Ġdisclaimer": 37592,
    "Ġinventive": 47602,
    "Alice": 44484,
    "Board": 29828,
    "idav": 20331,
    "Produ": 11547,
    "Ġriver": 7850,
    "hao": 23778,
    "ĠHass": 20300,
    "ĠGh": 11972,
    "ĠProf": 4415,
    "364": 26780,
    "Ġrides": 17445,
    "Ġengulf": 30443,
    "Ġlethal": 17769,
    "Ġtopple": 49377,
    "Ġgenerating": 15453,
    "Ġconsult": 5725,
    "Ġbisexual": 24249,
    "Ġaffecting": 13891,
    "Woman": 48081,
    "isp": 8802,
    "ĠBulgaria": 27902,
    "MO": 11770,
    "ĠInvestment": 20877,
    "ĠAllied": 28234,
    "peak": 36729,
    "uttering": 33598,
    "ĠReturning": 42882,
    "ĠOscars": 46485,
    "Ġshutdown": 18325,
    "ĠStead": 45445,
    "Ġlauncher": 24008,
    "Ġradio": 5243,
    "ĠSilence": 26354,
    "ĠHolding": 31703,
    "Firstly": 49709,
    "ĠTransformation": 49127,
    "ĠDetention": 46193,
    "ĠAqua": 24838,
    "RON": 45806,
    "Ġloads": 15989,
    "ĠMig": 24488,
    "Ġcooker": 37171,
    "File": 8979,
    "ĠGon": 35371,
    "Lie": 47918,
    "Ġaesthetics": 35431,
    "ĠTypes": 24897,
    "Ġscratch": 12692,
    "ady": 4597,
    "ĠFame": 18864,
    "Ġtoddler": 30773,
    "Ġ___": 46444,
    "aleb": 32100,
    "Ġdocumenting": 33045,
    "uked": 48809,
    "Ġconditions": 3403,
    "apple": 18040,
    "Ġmultiple": 3294,
    "Ġslam": 21158,
    "erville": 33487,
    "Ġthirteen": 28306,
    "ighters": 6261,
    "reatment": 21731,
    "ĠArabic": 17526,
    "Ġoutweigh": 31405,
    "105": 13348,
    "ĠSame": 16766,
    "581": 48630,
    "Ġregist": 4214,
    "Ġro": 686,
    "ĠTerry": 14286,
    "Ġdiscord": 36446,
    "ERSON": 29086,
    "EMBER": 28952,
    "Ġfavoured": 38931,
    "ĠChristmas": 6786,
    "Prim": 23828,
    "ritz": 29574,
    "Ale": 37474,
    "Ġexamination": 12452,
    "Ġcheek": 19353,
    "ĠRet": 4990,
    "amoto": 25384,
    "ilar": 1794,
    "Ġbenchmark": 18335,
    "Ġdispleasure": 47313,
    "Ġroots": 11135,
    "Ġanything": 1997,
    "Chair": 43189,
    "geist": 49782,
    "ĠMous": 42436,
    "Syria": 40029,
    "Ġgoverning": 15030,
    "Ġadolesc": 19373,
    "ĠIg": 28818,
    "357": 27277,
    "Ġidentities": 18413,
    "ĠLund": 33609,
    "ĠLv": 24388,
    "puted": 17128,
    "Ġmedals": 28057,
    "ĠCorporate": 26040,
    "mL": 32087,
    "Ġ444": 45095,
    "ĠAv": 5184,
    "ĠGators": 47470,
    "Ġbit": 1643,
    "ĠeSports": 32717,
    ",.": 38508,
    "Ġprobe": 12774,
    "ĠAPPLIC": 39421,
    "RC": 7397,
    "side": 1589,
    "Ġnominating": 48833,
    "Ġendeavors": 40273,
    "Ġalleging": 26116,
    "Ġinspecting": 49889,
    "ĠWasteland": 47292,
    "gaming": 48616,
    "ĠBland": 49524,
    "ĠPolo": 49341,
    "ĠCLI": 43749,
    "Ġswear": 21192,
    "groups": 24432,
    "652": 43193,
    "Python": 37906,
    "ĠTrump": 1301,
    "Ġphilosopher": 23723,
    "ĠGOOD": 21090,
    "ĠTitan": 11977,
    "nell": 10076,
    "Ġdivide": 14083,
    "inguishable": 41726,
    "Ġredist": 17678,
    "Ġth": 294,
    "Ġtaxis": 45049,
    "Ġconfir": 4322,
    "Ġcrystall": 31578,
    "ãģĨ": 29557,
    "Ġportfolios": 47837,
    "dem": 9536,
    "Ġhinge": 41968,
    "ĠAster": 38484,
    "anton": 23026,
    "ĠItems": 17230,
    "Ġinitially": 7317,
    "ĠGlory": 25778,
    "ĠCena": 46625,
    "ĠMock": 44123,
    "Ġpepper": 13385,
    "Ġdisrespectful": 41987,
    "icle": 1548,
    "ifest": 8409,
    "âĢ¦": 1399,
    "Ġdebit": 30977,
    "Ġpointing": 10609,
    "angler": 49910,
    "ĠLEDs": 33697,
    "292": 32759,
    "ĠClasses": 38884,
    "Ġflowing": 17609,
    "ure": 495,
    "femin": 33594,
    "Ġwoodland": 49609,
    "ĠBust": 36988,
    "Ġgone": 3750,
    "News": 9980,
    "iddled": 34897,
    "ĠDefence": 16721,
    "gae": 25002,
    "Ġcatering": 39211,
    "Ġmay": 743,
    "Ġthose": 883,
    "Ġtanks": 11657,
    "Ġspikes": 27198,
    "ĠKoz": 40772,
    "ilst": 11750,
    "Ġhangs": 28087,
    "Ġart": 1242,
    "will": 10594,
    "Ġrunning": 2491,
    "uary": 2838,
    "Ġreplication": 30330,
    "ĠMTV": 31214,
    "ĠDelicious": 39528,
    "ĠDoe": 31780,
    "fur": 38916,
    "ĨĴ": 10253,
    "ificantly": 42491,
    "Ġpassengers": 10405,
    "ĠRhythm": 45757,
    "ĠHarm": 17925,
    "790": 37750,
    "ĠMu": 8252,
    "Ġacademics": 22321,
    "Ġdirect": 1277,
    "ĠResponse": 18261,
    "ĠGROUP": 44441,
    "eming": 46564,
    "Ġunderstatement": 46196,
    "obj": 26801,
    "Ġceremon": 20166,
    "Ġproletariat": 30444,
    "ĠFiat": 23327,
    "1988": 26709,
    "imb": 14107,
    "ĠWillis": 32748,
    "impl": 23928,
    "çīĪ": 48304,
    "Ġrune": 35930,
    "ħĭ": 26534,
    "acement": 5592,
    ",[": 17414,
    "ĠAlas": 45315,
    "filled": 20286,
    "ĠSomali": 30886,
    "ĠFifa": 49142,
    "usage": 26060,
    "ĠRounds": 49049,
    "Ġtyre": 48216,
    "ĠArtifact": 45908,
    "edition": 28736,
    "Ġnarciss": 24753,
    "freedom": 41295,
    "Ġsolely": 9944,
    "Ġstrikeouts": 36431,
    "Ġresorts": 43017,
    "439": 47106,
    "Ġrepeatedly": 7830,
    "Ġservant": 18807,
    "Alright": 31442,
    "ĠVolunteer": 45202,
    "plugin": 33803,
    "day": 820,
    "Ġrecharge": 27978,
    "Ġpads": 21226,
    "ĠGirls": 12002,
    "Ġimplicitly": 31821,
    "Ġresidence": 11566,
    "Ġbanners": 31931,
    "Ġcross": 3272,
    "140": 15187,
    "ĠBureau": 9840,
    "Ġproblem": 1917,
    "hedon": 46086,
    "Ġalcoholism": 46526,
    "274": 28857,
    "ĠFrontier": 23281,
    "Ġgri": 11120,
    "Ġbrunt": 48850,
    "Ġbiom": 27488,
    "Ġpreval": 11967,
    "Ġpure": 5899,
    "Ġangrily": 34425,
    "Ġlaun": 2698,
    "Ġ..": 11485,
    "ĠCle": 3779,
    "platform": 24254,
    "ĠGrab": 25339,
    "ĠDirty": 32052,
    "ceivable": 48054,
    "dimensional": 19577,
    "Ġextravagant": 45997,
    "Ġtrendy": 44493,
    "ĠPuzzles": 31913,
    "Ġtension": 12097,
    "ĠJPEG": 48561,
    "Ġglossy": 40551,
    "Live": 18947,
    "ĠFake": 33482,
    "ĠEXP": 25703,
    "Ġintensify": 47697,
    "ĠKor": 14769,
    "Ġblacklist": 38810,
    "controlled": 14401,
    "ictions": 9278,
    "âĶĢâĶĢ": 8418,
    "Ġâĩ": 42527,
    "Ġlifestyles": 43644,
    "entials": 14817,
    "ĠSergeant": 26541,
    "iest": 6386,
    "Ġmanifest": 10561,
    "ĠFu": 13333,
    "Ġpacks": 15186,
    "ocr": 1696,
    "Ġchurch": 4928,
    "eve": 44655,
    "Ġwelfare": 9490,
    "Ġgiveaways": 50020,
    "Ġincarcerated": 33946,
    "chrome": 46659,
    "Ġfrontline": 44956,
    "ĠFahrenheit": 35935,
    "<": 27,
    "Ġdictatorship": 26457,
    "ĠArtificial": 35941,
    "U": 52,
    "ĠPersons": 32884,
    "Copy": 29881,
    "ĠABV": 49993,
    "chains": 38861,
    "ĠDelivery": 28682,
    "ĠSG": 26147,
    "Ġasteroids": 43098,
    "ĠPossibly": 43046,
    "Ġtong": 10479,
    "Ġbrushed": 31782,
    "ĠShark": 28616,
    "oir": 10840,
    "greSQL": 47701,
    "Ġtomatoes": 23972,
    "Mult": 15205,
    "................": 4181,
    "heim": 9096,
    "Int": 5317,
    "Interest": 19302,
    "Drag": 46022,
    "Ġdelightful": 32327,
    "Ġreconsider": 26540,
    "NetMessage": 25193,
    "Single": 28008,
    "Ġconfuse": 27531,
    "Ġupt": 18529,
    "alid": 10751,
    "Ġribbon": 29092,
    "ĠAna": 17639,
    "ĠFramework": 25161,
    "IST": 8808,
    "ĠGENERAL": 41877,
    "Â¢": 44359,
    "winning": 14463,
    "itches": 9249,
    "Ġappropriate": 5035,
    "whatever": 39664,
    "ĠWalking": 21276,
    "iltration": 36055,
    "ĠMedals": 42171,
    "Ġsolicitor": 48709,
    "Ġmonumental": 36364,
    "Ġimply": 20135,
    "Ġshut": 4423,
    "Ġknockout": 35825,
    "pressed": 45477,
    "Ġenrol": 34311,
    "Ġdetails": 3307,
    "Ġfog": 19558,
    "71": 4869,
    "icted": 5722,
    "lbs": 32133,
    "ĠPetra": 37285,
    "Med": 9921,
    "ĠDebian": 26062,
    "Ġworkspace": 44573,
    "Ġonly": 691,
    "ĠVirginia": 6025,
    "nard": 40542,
    "apa": 32678,
    "Ġnailed": 37708,
    "ions": 507,
    "patrick": 29615,
    "Ġloaded": 9639,
    "ĠHP": 6574,
    "ĠVID": 32247,
    "Ġplayed": 2826,
    "ĠZoe": 32280,
    "Ġrelate": 15124,
    "assault": 46635,
    "Ġmelt": 16867,
    "ĠPeterson": 18914,
    "Ġseq": 33756,
    "Child": 16424,
    "ĠBloody": 30893,
    "helps": 35194,
    "exe": 13499,
    "ick": 624,
    "er": 263,
    "ĠHol": 6479,
    "Ġpalate": 44100,
    "AW": 12298,
    "ĠChun": 40958,
    "Ġtour": 4205,
    "Ġprevalent": 21854,
    "Ġstolen": 9909,
    "Matrix": 46912,
    "Ġdishonest": 30549,
    "Ġhive": 35881,
    "Rap": 35230,
    "Ġshuffle": 36273,
    "Ġencrypted": 19365,
    "Ġremember": 3505,
    "Ġmeanings": 26368,
    "ĠAcid": 27066,
    "That": 2504,
    "Ġ317": 37563,
    "ĠLater": 11450,
    "Ġorganizers": 19043,
    "Ġtert": 48358,
    "hum": 17047,
    "uri": 9900,
    "Ġresent": 20315,
    "ĠPark": 3250,
    "lev": 2768,
    "Ġhabitual": 46020,
    "ĠDG": 46133,
    "Ġbumper": 32228,
    "child": 9410,
    "seen": 15898,
    "ika": 9232,
    "Ġtaxes": 5704,
    "Ġneigh": 3422,
    "Ġsubtly": 37847,
    "Ġwidespread": 10095,
    "banks": 43558,
    "Ġrepublic": 17146,
    "Ġthumbnail": 40901,
    "Ġaggressive": 8361,
    "Ġburied": 11694,
    "Ġdamn": 12270,
    "Ġautos": 44619,
    "Ġthousands": 4138,
    "illusion": 35760,
    "Ġcustomers": 4297,
    "mal": 7617,
    "ĠSuns": 29139,
    "Ġinternally": 20947,
    "Ġskating": 33051,
    "776": 39509,
    "Ġxx": 31383,
    "three": 15542,
    "========": 2559,
    "Ġflushed": 44869,
    "wolves": 29664,
    "342": 31575,
    "Ġflip": 14283,
    "Ġcategor": 17851,
    "Ġbarric": 31853,
    "ĠLev": 16042,
    "Ġperipher": 18375,
    "ĠTaste": 29633,
    "ĠMinistry": 9475,
    "Ġtrails": 19196,
    "ĠGriffith": 30469,
    "cox": 40359,
    "Ġdisadvantage": 21407,
    "Ġaudit": 14984,
    "bed": 3077,
    "Ġscripts": 14750,
    "ĠTex": 3567,
    "Ġphotographed": 25880,
    "Ġdispatch": 27965,
    "Ġwithdrawn": 23019,
    "ĠAzerb": 29740,
    "ĠVT": 32751,
    "ĠYar": 45184,
    "Ġadject": 31129,
    "planet": 47427,
    "ĠDescription": 12489,
    "ĠContra": 46243,
    "ĠDakota": 13336,
    "372": 36720,
    "ummies": 39578,
    "Ġpatriarchal": 42301,
    "Ġclaiming": 8512,
    "Ġtumult": 38064,
    "Ġfals": 27807,
    "Ġsovereignty": 18582,
    "Ġgravy": 43779,
    "Civil": 32610,
    "Google": 11708,
    "ĠBreitbart": 19923,
    "Ġagenda": 8666,
    "Ġworth": 2861,
    "ieg": 15702,
    "ĠReason": 23219,
    "Ġoranges": 48389,
    "ĠCroatian": 48853,
    "cedes": 19285,
    "Ġusefulness": 37496,
    "ĠMom": 11254,
    "Ġneglig": 16776,
    "Ġchoked": 39283,
    "Ġcateg": 4253,
    "Ġreactionary": 35578,
    "asu": 27345,
    "Ġtranslucent": 45323,
    "Ġworthless": 28063,
    "426": 42780,
    "entle": 8651,
    "duc": 6077,
    "ophobic": 23468,
    "Ġlookout": 40497,
    "Dir": 35277,
    "}:": 38362,
    "Ġcoc": 8954,
    "ĠBeam": 25855,
    "Ġloved": 6151,
    "Ġphrases": 20144,
    "ĠMage": 17323,
    "Ġsecret": 3200,
    "Ġnit": 13759,
    "hew": 6391,
    "Should": 19926,
    "ĠHang": 24300,
    "Ġimporting": 33332,
    "Ġkin": 18967,
    "oving": 5165,
    "Ġfeeding": 13017,
    "575": 36189,
    "ĠHawk": 26698,
    "Ġdelighted": 20707,
    "Ġinexperienced": 38003,
    "Ġoffence": 14148,
    "ĠAdviser": 47661,
    "Ġphotograp": 10079,
    "Ġwallets": 29608,
    "Interested": 48860,
    "Ġsubscript": 32891,
    "ild": 688,
    "ĠExtend": 46228,
    "STATE": 44724,
    "Ġhorses": 14260,
    "ĠCurrent": 9236,
    "Ġiter": 11629,
    "ĠLeilan": 50216,
    "Though": 10915,
    "ART": 7227,
    "rogram": 39529,
    "Ġagreement": 4381,
    "ĠPeck": 48434,
    "ĠVulcan": 33402,
    "Ġjackets": 35129,
    "oding": 7656,
    "Ġcreatively": 48707,
    "Ġoverboard": 49265,
    "ĠCookie": 39606,
    "ĠGo": 1514,
    "Ġdefenses": 18370,
    "Ġimpacting": 40288,
    "Ġfractures": 39381,
    "ĠHuma": 49387,
    "terday": 6432,
    "ĠStructure": 32522,
    "Ġboo": 22513,
    "itude": 3984,
    "Ġmales": 10835,
    "Ġsketches": 34035,
    "ĠAnt": 3738,
    "Ġcreature": 7185,
    "ĠPearson": 31074,
    "ĠAdobe": 21771,
    "Ġcontacted": 11237,
    "Ġnerds": 47088,
    "Ġexits": 30151,
    "Ġpal": 6340,
    "Ġlap": 14779,
    "Ġoverheard": 48255,
    "Student": 38778,
    "Ġnaming": 19264,
    "Ġincest": 35961,
    "ĠBeir": 38693,
    "Ġpoultry": 34101,
    "ĠMPs": 14952,
    "Ġswamp": 26837,
    "Ġdec": 875,
    "comfort": 21598,
    "ĠIl": 13778,
    "bee": 20963,
    "Ġsettles": 43684,
    "clinton": 37821,
    "Ġcrawl": 27318,
    "aneous": 11655,
    "Ġreferred": 6412,
    "aghetti": 35812,
    "ĠMany": 4650,
    "ĠFenrir": 39394,
    "Ġpresum": 9227,
    "Ġbathroom": 12436,
    "Ġtransactions": 8945,
    "597": 43239,
    "Ġpreferences": 15387,
    "sea": 8583,
    "regulation": 27727,
    "ĠHaley": 30646,
    "ĠGlobal": 8060,
    "ĠPse": 49693,
    "ĠAges": 21449,
    "iege": 14566,
    "righteous": 49955,
    "Ġunsett": 29286,
    "uding": 26570,
    "information": 17018,
    "med": 1150,
    "ĠIndonesia": 16256,
    "browser": 40259,
    "Ġculture": 3968,
    "scroll": 48728,
    "Ġconflict": 5358,
    "ĠFind": 9938,
    "ĠCrazy": 19932,
    "Ġthriller": 32251,
    "ĠSmithsonian": 40131,
    "Exception": 16922,
    "atari": 35554,
    "Ġproject": 1628,
    "omination": 27744,
    "ka": 4914,
    "Ġattributable": 29816,
    "ĠLudwig": 44476,
    "ĠPACs": 43838,
    "Ġrep": 1128,
    "null": 8423,
    "Ġwhole": 2187,
    "Ġoutpost": 38327,
    "ĠPax": 48008,
    "MF": 49800,
    "ĠðŁĻĤ": 32485,
    "Ġkidnapping": 25201,
    "ĠTempl": 31711,
    "Ġ530": 40585,
    "ĠMechanics": 47570,
    "orpor": 31150,
    "NAT": 34259,
    "Ġelectors": 39259,
    "ĠLod": 45238,
    "often": 28950,
    "Ġmood": 10038,
    "Ġroommate": 33305,
    "Ġdemonstration": 13646,
    "ĠDarren": 26203,
    "Ġvoiced": 21346,
    "astics": 24232,
    "Ġafter": 706,
    "ader": 5067,
    "eka": 38001,
    "Ġinsects": 19435,
    "ĠCheney": 31287,
    "Ġclaw": 26573,
    "Ġrecre": 11027,
    "Ġcold": 4692,
    "Ġactively": 10630,
    "cal": 9948,
    "venge": 18674,
    "Ġcommodities": 24392,
    "ĠIdeal": 41765,
    "Ġcasc": 49164,
    "Ġcontinual": 37639,
    "Ġboots": 14412,
    "Ġsolves": 39107,
    "urrection": 21384,
    "Ġsubcontract": 47980,
    "Ġcancelled": 16769,
    "Ġskim": 39080,
    "utton": 21115,
    "Ġdeterior": 17975,
    "Ġcannibal": 39904,
    "Ġguarded": 28178,
    "rius": 48969,
    "reath": 19367,
    "Ġperpetrated": 35524,
    "Ġstatutory": 20693,
    "ĠZeus": 20620,
    "urer": 15051,
    "Dem": 11522,
    "ĠSome": 2773,
    "Ġpromul": 38040,
    "Ġresolved": 12939,
    "Ġinteger": 18253,
    "Ġlobbyist": 35196,
    "ĠBoard": 5926,
    "ype": 2981,
    "Ġagree": 4236,
    "nutrition": 40482,
    "Ġ02": 7816,
    "Ġunreasonable": 24673,
    "ĠRx": 49715,
    "ĠRecords": 13407,
    "utic": 18089,
    "Elizabeth": 43568,
    "imar": 49399,
    "Ġhouse": 2156,
    "above": 29370,
    "ĠIss": 10585,
    "Ġdecipher": 42790,
    "Cu": 46141,
    "Ġrehab": 14321,
    "ĠDodd": 32145,
    "ikan": 49894,
    "ĠWon": 23306,
    "Ġuint": 20398,
    "Depth": 48791,
    "ĠScythe": 45227,
    "Ġped": 7190,
    "@@": 12404,
    "elected": 28604,
    "vous": 31222,
    "Ġbattle": 3344,
    "ĠMount": 5628,
    "Ġviewed": 9569,
    "Ġpistols": 34793,
    "Ġdisconnected": 28597,
    "ufact": 3603,
    "ĠSchmidt": 24740,
    "ĠGoPro": 49789,
    "ĠNikon": 31356,
    "ĠHurricane": 16004,
    "Ġbowls": 34796,
    "ular": 934,
    "stad": 24107,
    "ebus": 33209,
    "Ġbenefiting": 39125,
    "Ġreceivers": 19137,
    "Ġparanormal": 47525,
    "Ġproduced": 4635,
    "Ġcage": 17186,
    "Tumblr": 39415,
    "ĠCanada": 3340,
    "Ġpigs": 22333,
    "Ġhaunt": 36334,
    "toc": 40301,
    "Ġsister": 6621,
    "ZE": 21211,
    "ĠGorsuch": 38465,
    "POR": 44680,
    "Ġmolecule": 27756,
    "GM": 15548,
    "Ġlogs": 17259,
    "lines": 6615,
    "perse": 38696,
    "714": 45722,
    "ĠMana": 17493,
    "aker": 3110,
    "Ġhereafter": 49912,
    "Ġvisions": 26096,
    "Ġbullied": 33632,
    "ĠEgyptians": 32658,
    "ĠAQ": 39514,
    "Ġremaining": 5637,
    "Ġstereotypical": 46112,
    "Ġsitu": 34074,
    "ĠRegister": 17296,
    "ondo": 22311,
    "Mag": 13436,
    "tem": 11498,
    "ãĥ": 1209,
    "ĠAla": 42682,
    "bg": 35904,
    "unc": 19524,
    "Ġcm": 12067,
    "apesh": 25490,
    "ĠEdited": 34212,
    "inline": 45145,
    "Ġresize": 47558,
    "Ġembodiment": 23168,
    "?),": 33924,
    "Ġarrog": 19563,
    "Ġharmed": 28517,
    "ĠOnePlus": 40518,
    "ĠSTD": 48571,
    "Ġrecordings": 18813,
    "ĠVelocity": 43137,
    "VM": 15996,
    "ĠDaw": 17552,
    "rag": 22562,
    "Config": 16934,
    "Ġstrawberry": 41236,
    "Ġclearly": 4084,
    "Ġvector": 15879,
    "ĠMorg": 37417,
    "iot": 5151,
    "Ct": 33707,
    "Ġext": 1070,
    "Ġattributes": 12608,
    "Duration": 26054,
    "ali": 7344,
    "Ġfinding": 4917,
    "rave": 5758,
    "ĠYards": 42673,
    "ĠBender": 34535,
    "dated": 8715,
    "ĠEther": 20017,
    "orts": 2096,
    "Ġdates": 9667,
    "sounding": 39686,
    "ĠVive": 29237,
    "ĠCliff": 23501,
    "Ġbos": 37284,
    "trl": 14859,
    "ĠWatts": 27555,
    "Ġmanifestation": 30566,
    "ĠNat": 14393,
    "ĠEngineering": 14044,
    "inally": 3289,
    "ĠRao": 48395,
    "ĠBo": 3248,
    "ĠEuropeans": 20006,
    "ĠSacred": 17380,
    "Ġhurdle": 36633,
    "Ġonboard": 25863,
    "ĠDL": 23641,
    "Ġlicence": 17098,
    "Ġscams": 41718,
    "beta": 31361,
    "Mbps": 47842,
    "Ġpitched": 21730,
    "SPEC": 48451,
    "Ã¡n": 21162,
    "auna": 32837,
    "PLA": 45710,
    "upon": 27287,
    "Maria": 46827,
    "ITNESS": 46144,
    "Ġherald": 28783,
    "edia": 5507,
    "Ġdeposit": 14667,
    "Ġevolutionary": 16673,
    "gain": 48544,
    "Dave": 27984,
    "ĠChevy": 40688,
    "Magic": 22975,
    "Ġbuckets": 38674,
    "Ġrivalry": 26390,
    "Ġdrifting": 38193,
    "Ġconfidence": 6628,
    "Ġfitted": 18235,
    "ĠTrudeau": 17524,
    "Ġmedium": 7090,
    "Ġannounced": 3414,
    "ap": 499,
    "agraph": 6111,
    "izards": 14124,
    "ĠYounger": 45174,
    "ĠCorpus": 44874,
    "Ġclimbs": 34332,
    "Ġcanal": 29365,
    "Py": 20519,
    "Ġgeographical": 27465,
    "WER": 45532,
    "ĠHoldings": 31681,
    "self": 944,
    "Field": 15878,
    "Ġsavior": 47921,
    "Ġequipment": 5112,
    "ĠBeach": 8511,
    "Ġvalues": 3815,
    "epad": 47852,
    "Ġtesters": 42891,
    "Ġpartnerships": 22867,
    "Ġproceeds": 15740,
    ".''.": 50113,
    "Ġdowntown": 9436,
    "ĠBarth": 44414,
    "Ġinnumerable": 45383,
    "iterranean": 19012,
    "Bloomberg": 47696,
    "Ġredevelopment": 40751,
    "iscopal": 42522,
    "inances": 34999,
    "ĠJunction": 44410,
    "ĠSU": 13558,
    "ciating": 46136,
    "Ġuttered": 36144,
    "Ġtenant": 18285,
    "Ġwhen": 618,
    "ribut": 2455,
    "ĠRusso": 46855,
    "Ġdaily": 4445,
    "euro": 44252,
    "Ġswipe": 30054,
    "Ġaltered": 14294,
    "ote": 1258,
    "646": 27720,
    "Ġshade": 17979,
    "875": 31360,
    "Ġforward": 2651,
    "Ġplanners": 33596,
    "ĠFox": 5426,
    "ĠEstimated": 47737,
    "é¾įå¥": 39820,
    "ĠMass": 5674,
    "Ġhelicopters": 23890,
    "Ġthis": 428,
    "Ġseed": 9403,
    "Ġmolten": 44030,
    "ĠJudy": 26395,
    "Ġ323": 38446,
    "behind": 42200,
    "aday": 43593,
    "links": 28751,
    "Ġfurn": 8926,
    "ĠIntel": 8180,
    "Ġaccessibility": 28969,
    "loe": 24617,
    "apters": 12126,
    "orean": 29456,
    "Ġjealous": 19354,
    "ĠBet": 5147,
    "aving": 2703,
    "ĠAccord": 46562,
    "Ġadvant": 4026,
    "Ġshuts": 44854,
    "Ġquieter": 43880,
    "Ġ[(": 47527,
    "ursed": 17539,
    "Ġimagin": 25007,
    "Ġ189": 27230,
    "Ġbribery": 37388,
    "Ġshitty": 32574,
    "lectic": 42009,
    "mining": 45374,
    "agle": 19345,
    "ĠFighters": 29165,
    "ĠDifference": 43795,
    "Teen": 45639,
    "Ġsake": 11060,
    "Ġpriests": 17345,
    "ĠEuros": 40745,
    "Ġembedded": 14553,
    "Ġmedical": 3315,
    "Ġcelebrity": 16527,
    "Ġcapture": 8006,
    "Ġcommence": 23038,
    "aling": 4272,
    ">.": 28401,
    "Ġalluded": 45652,
    "ĠSusp": 31922,
    "Ġ205": 22538,
    "ĠClin": 11834,
    "Ġattempt": 2230,
    "Ġrh": 9529,
    "Ġbuying": 7067,
    "Fish": 39428,
    "ĠIt": 632,
    "Ġ179": 27228,
    "sc": 1416,
    "ĠAustral": 3138,
    "bor": 2865,
    "Ġarrogant": 28868,
    "uci": 42008,
    "ĠWinnipeg": 23434,
    "ĠCur": 4424,
    "bird": 16944,
    "Ġfeud": 21419,
    "ĠDeep": 10766,
    "Ġlook": 804,
    "Ġtop": 1353,
    "Come": 16773,
    "Ġ.\"": 22135,
    "Ġhumour": 31049,
    "Ġsocio": 21790,
    "ĠFreed": 38728,
    "Ġimb": 33966,
    "ĠSpotlight": 49014,
    "fail": 32165,
    "ĠMalays": 12230,
    "Ġ1860": 37637,
    "ĠBroncos": 16582,
    "erences": 4972,
    "Ġrigid": 20831,
    "Ġâī¡": 38243,
    "hesis": 8497,
    "450": 17885,
    "Ġsharp": 7786,
    "aimon": 49438,
    "ĠNRS": 40034,
    "Ġmusical": 10530,
    "utra": 35076,
    "ĠNews": 3000,
    "Ġbob": 29202,
    "dan": 25604,
    "Ġacron": 33898,
    "Ġfilming": 17691,
    "ĠWond": 31960,
    "kh": 14636,
    "267": 25674,
    "Ġ666": 43364,
    "Ø§ÙĦ": 23525,
    "Ġmember": 2888,
    "Ġconference": 4495,
    "ĠDisease": 17344,
    "Ġnick": 14428,
    "bringer": 48046,
    "Ġredes": 19965,
    "rites": 23156,
    "Ġapologize": 16521,
    "Ġjail": 7356,
    "Ġconvened": 39828,
    "ĠImage": 7412,
    "ĠBakr": 47121,
    "Ġexecutable": 28883,
    "360": 15277,
    "Ġinjustice": 21942,
    "Ġpredictions": 16277,
    "ĠÂ±": 6354,
    "102": 15377,
    "nostic": 43758,
    "Ġsilhou": 33123,
    "ĠFlip": 29583,
    "September": 17543,
    "Ġtravelling": 16574,
    "atro": 47756,
    "Skip": 50232,
    "ĠGreater": 18169,
    "Ġmissionaries": 37458,
    "Ġcomplying": 39076,
    "ĠMiliband": 38199,
    "665": 36879,
    "Marvel": 38864,
    "ĠData": 6060,
    "ĠWast": 32929,
    "ĠApplic": 16806,
    "Ġdisagree": 12546,
    "stice": 43788,
    "Ġreluctant": 18416,
    "Ġstartups": 21685,
    "343": 32118,
    "ĠProtest": 17801,
    "Ġepigen": 49651,
    "Ġ65": 6135,
    "ĠConstant": 20217,
    "ieving": 30749,
    "Ġpersist": 21160,
    "Wikipedia": 48845,
    "Ġrecol": 26330,
    "Ġparcels": 49796,
    "ĠLar": 25577,
    "ĠInsight": 39917,
    "Ġrunaway": 39732,
    "Ġtrained": 8776,
    "Ġ())": 32865,
    "Ġassuming": 13148,
    "Ġstamped": 28305,
    "Ġescalating": 32206,
    "OTUS": 39205,
    "Ġip": 20966,
    "Ġundecided": 39511,
    "urable": 11970,
    "emption": 11221,
    "music": 28965,
    "uous": 5623,
    "Ġheightened": 25556,
    "Ġintel": 33649,
    "276": 27988,
    "Ġinterfaces": 20314,
    "sych": 2924,
    "Ġdazzling": 41535,
    "Ġskinny": 29494,
    "heast": 9522,
    "houn": 47714,
    "ĠCyp": 48881,
    "Ġmos": 10867,
    "ĠDAC": 45793,
    "ĠIrvine": 37277,
    "Ġholistic": 42923,
    "otin": 41403,
    "Ġsubsequ": 6399,
    "manship": 25428,
    "ĠThree": 7683,
    "Ġcpu": 42804,
    "ĠRath": 26494,
    "Ġspecialty": 22847,
    "reated": 15978,
    "Ġobligation": 12990,
    "Ġloose": 9155,
    "Ġpens": 29707,
    "hern": 2881,
    "uras": 17786,
    "Ġdiscrim": 6534,
    "Ġlawful": 20785,
    "ĠRubio": 15476,
    "MAL": 42126,
    "ause": 682,
    "hd": 31298,
    "Ġpersuasive": 40116,
    "ĠNutrition": 23285,
    "Prince": 35784,
    "ĠDavis": 7802,
    "Ġjoke": 9707,
    "Ġbreaths": 45576,
    "ĠNAV": 47140,
    "Ġhardened": 33034,
    "ĠDawson": 32801,
    "ENDED": 49361,
    "Ġbless": 12012,
    "ĠEmacs": 36447,
    "Ġfs": 43458,
    "ĠDrawn": 50061,
    "ĠGleaming": 49339,
    "ivari": 35460,
    "Ġnumbered": 25840,
    "Ġassassination": 18898,
    "ĠGujar": 28600,
    "ĠRuff": 42409,
    "ĠJays": 23288,
    "ĠAAA": 25734,
    "SK": 18831,
    "5000": 27641,
    "ĠHyde": 30785,
    "\"))": 48774,
    "Ġorganizations": 5745,
    "tag": 12985,
    "40": 1821,
    "Ġproductive": 12973,
    "Ġmarketed": 29450,
    "ĠCongressional": 15757,
    "Ġdebating": 31174,
    "ĠChow": 37932,
    "ey": 2959,
    "ĠRio": 15338,
    "Ġpermissible": 32005,
    "Ġinducing": 44561,
    "ĠBes": 30837,
    "ĠCotton": 23915,
    "Professional": 49138,
    "Ġissue": 2071,
    "Ġprosecutors": 11947,
    "Ġhun": 5494,
    "itent": 48324,
    "Sov": 38574,
    "maximum": 47033,
    "lett": 15503,
    "Ġweb": 3992,
    "Ġinterior": 11087,
    "agger": 7928,
    "Á": 125,
    "uses": 2664,
    "ĠReve": 31091,
    "Ġwhose": 3025,
    "places": 23625,
    "ĠDEL": 28163,
    "Ġ243": 35989,
    "UM": 5883,
    "ĠBiden": 21010,
    "Ġstats": 9756,
    "Ġrare": 4071,
    "ĠNames": 28531,
    "Ġgenomes": 42136,
    "þ": 186,
    "ĠCecil": 32234,
    "Ġem": 795,
    "IND": 12115,
    "OWS": 22845,
    "Ġhaunting": 36660,
    "Ġapprox": 5561,
    "ilic": 41896,
    "Ġpollen": 40362,
    "ĠSalon": 40121,
    "Ġkept": 4030,
    "ĠOlivier": 45674,
    "ĠKira": 49103,
    "amar": 39236,
    "ooo": 34160,
    "dd": 1860,
    "bys": 48209,
    "ĠGene": 13005,
    "Law": 16966,
    "Ġdign": 13469,
    "ĠKlux": 45092,
    "eport": 45813,
    "199": 19104,
    "Design": 23067,
    "Ġ1971": 16382,
    "Ġcustoms": 17112,
    "ĠSaban": 41618,
    "Ġnobody": 8168,
    "Ġmodes": 12881,
    "ĠCroatia": 28975,
    "Ġgrabbed": 13176,
    "Ġgrapp": 21338,
    "Ġapprentices": 38523,
    "ĠMcK": 11888,
    "inary": 3219,
    "ĠReduced": 39963,
    "ĠPerception": 35802,
    "Ġdisk": 11898,
    "ĠRefugee": 42791,
    "ogged": 42545,
    "Ky": 30630,
    "ĠAdmiral": 24646,
    "Diff": 28813,
    "FORM": 21389,
    "Ġshrew": 44551,
    "pool": 7742,
    "wave": 19204,
    "Ġdetonated": 38754,
    "ĠDA": 17051,
    "ĠVari": 15965,
    "Yang": 38663,
    "lap": 37796,
    "Ġloos": 37222,
    "Ġgroundwater": 34573,
    "Ġobservation": 13432,
    "Ġenzyme": 27679,
    "ĠGMT": 16987,
    "opian": 37548,
    "ĠJordan": 8078,
    "Ġ1952": 26352,
    "Ġsimplify": 30276,
    "Ġpadded": 44582,
    "minimum": 39504,
    "Ġinterventions": 19901,
    "Ġfra": 5306,
    "ĠRanked": 41844,
    "ĠAim": 36223,
    "Ġskyrocket": 41483,
    "Ġnoun": 23227,
    "ĠTurns": 30875,
    "ĠHoff": 21890,
    "Ġcarb": 13265,
    "Ġstained": 34568,
    "Ġhandcuffs": 44473,
    "Ġinevitably": 16857,
    "À": 124,
    "Ġdiscern": 22024,
    "ĠRET": 30826,
    "Ġ395": 42321,
    "Ġemotional": 7016,
    "Ġburnt": 22999,
    "Ġunsafe": 21596,
    "Ġpercentages": 28071,
    "Ġcaster": 31680,
    "chief": 17351,
    "Ġproperties": 6608,
    "rupted": 31590,
    "îĢ": 29773,
    "monary": 36639,
    "Ġcomponents": 6805,
    "lation": 7592,
    "Ġisol": 7010,
    "Ġvan": 5719,
    "Ġfixing": 18682,
    "Ġrendering": 14837,
    "Ġhelicop": 11727,
    "isson": 30927,
    "ultimate": 44818,
    "Ġpact": 28242,
    "Ġbelievers": 23142,
    "Ġproduction": 3227,
    "abi": 17914,
    "Ġfourteen": 29167,
    "Ġcohort": 20812,
    "ĠTRAN": 48213,
    "itted": 2175,
    "ĠHitler": 11908,
    "acion": 49443,
    "uddle": 24500,
    "Ġinvoice": 45458,
    "assembled": 46826,
    "Ġbiod": 32449,
    "ĠAm": 1703,
    "Ġfinalists": 43736,
    "Â·": 9129,
    "Ġsmelling": 48090,
    "Ġdeclass": 42794,
    "Ġprose": 27149,
    "Ġballpark": 40598,
    "Ġblend": 13516,
    "Ġlearn": 2193,
    "Ġalright": 23036,
    "Ġdisapp": 3786,
    "Ġsuited": 16662,
    "poke": 35924,
    "ĠBroadcasting": 32250,
    "ixty": 19404,
    "ĠGNOME": 40339,
    "Ġtorpedo": 39023,
    "Ġmoves": 6100,
    "Ġdealers": 15737,
    "Ġmarsh": 22397,
    "ĠFlint": 21660,
    "419": 45068,
    "ĠJoh": 16053,
    "ĠDiane": 26542,
    "ĠCH": 5870,
    "idas": 24496,
    "ĠDram": 36736,
    "Ġmagnitude": 14735,
    "Democratic": 33939,
    "ĠIndy": 26023,
    "construct": 41571,
    "Ġsecurity": 2324,
    "Ġware": 16202,
    "Îº": 43000,
    "Ġcircles": 13332,
    "Clear": 19856,
    "Ġsneak": 20528,
    "Ġ116": 18693,
    "Ġcompact": 16001,
    "ĠTamil": 32519,
    "Ġknowingly": 26526,
    "missive": 33532,
    "pocket": 31991,
    "Ġbring": 2222,
    "ms": 907,
    "ĠFat": 12301,
    "ĠInquis": 38010,
    "ĠÎ±": 26367,
    "ply": 2145,
    "992": 41561,
    "PI": 11901,
    "ĠAly": 47535,
    "ĠAtomic": 28976,
    "Param": 22973,
    "Exit": 30337,
    "TPP": 31435,
    "Ġalleg": 2868,
    "fuel": 25802,
    "Would": 17353,
    "ĠInstr": 27901,
    "Eye": 24876,
    "Ġgorgeous": 18857,
    "Ġactors": 10544,
    "iers": 3183,
    "ĠKDE": 36632,
    "ĠAbandon": 41105,
    "Ġdefender": 13191,
    "Ġprisoner": 17234,
    "charges": 34948,
    "Ġcurated": 36768,
    "Ġsucc": 17458,
    "ĠAR": 5923,
    "Obviously": 20670,
    "chen": 6607,
    "aspberry": 17653,
    "pps": 41799,
    "ĠReturns": 16409,
    "Ġconservatism": 33933,
    "Ġsensitive": 8564,
    "ĠAr": 943,
    "Ġguest": 8319,
    "ĠKKK": 42907,
    "Ġwashing": 20518,
    "s": 82,
    "ĠTHEIR": 47278,
    "Ġlaureate": 49734,
    "omever": 49784,
    "Ġpriesthood": 33060,
    "table": 11487,
    "äº": 12859,
    "Ġasking": 4737,
    "Ġsticks": 16461,
    "icht": 30830,
    "ĠOrth": 47664,
    "ĠVoters": 35689,
    "Ġhomosexuals": 35655,
    "Ġromantic": 14348,
    "What": 2061,
    "Ġcertific": 8700,
    "Ġbricks": 28902,
    "ĠBrendan": 26134,
    "ĠNewt": 40893,
    "Ġlandslide": 36348,
    "resident": 8154,
    "Ġintest": 20183,
    "ĠFairfax": 33514,
    "ĠBuck": 13452,
    "intuitive": 42105,
    "ĠReported": 30588,
    "Ġapplicable": 9723,
    "ĠUSPS": 44640,
    "ĠQB": 16135,
    "ĠSoft": 8297,
    "Earlier": 13689,
    "Ġdam": 1801,
    "Ġcombinations": 17790,
    "ĠSyracuse": 29141,
    "Ġmagnets": 37446,
    "ĠNevertheless": 15933,
    "ĠCounter": 15034,
    "Premium": 36787,
    "ulf": 4754,
    "ãģı": 31917,
    "Ġhappily": 18177,
    "Ġsolid": 4735,
    "255": 13381,
    "inea": 18343,
    "Ġnonexistent": 42601,
    "dist": 17080,
    "Ġobservational": 40118,
    "322": 37283,
    "such": 10508,
    "Ġmurky": 39574,
    "Ġautism": 15998,
    "Ġappend": 24443,
    "phthal": 48118,
    "Ġrobber": 29979,
    "ĠAWS": 30865,
    "ĠMark": 2940,
    "Ġshove": 38332,
    "ablish": 17148,
    "gra": 46784,
    "Ġpredictor": 41568,
    "Hey": 10814,
    "Ġextensions": 18366,
    "Ġbelieving": 14773,
    "Ġrescuing": 48329,
    "ĠRoots": 34341,
    "ĠJiang": 32294,
    "ĠPrinciples": 34200,
    "ĠKlingon": 45684,
    "ĠEthan": 28926,
    "Ġanalys": 11090,
    "ãĢį": 13700,
    "treated": 37182,
    "adj": 41255,
    "Ġattendance": 14858,
    "Ġmultit": 41785,
    "323": 32637,
    "Ġspons": 7180,
    "Ġtransact": 48878,
    "Ġimaging": 19560,
    "itta": 48519,
    "ĠLash": 47137,
    "ãģĮ": 35585,
    "Ġcrashing": 21899,
    "ĠGriff": 12222,
    "Ġhalting": 45588,
    "ĠAssuming": 33238,
    "Ġdigit": 16839,
    "Ġpatri": 12650,
    "Ġphysiological": 25033,
    "Ġcolonialism": 48359,
    "ĠWhip": 40930,
    "Ġexcise": 47547,
    "ĠAlfred": 22044,
    "Ġimprovements": 8561,
    "Ġexaggerated": 25291,
    "Ġlush": 37408,
    "Ġfract": 12999,
    "Â¯Â¯Â¯Â¯": 8980,
    "Ġfeasible": 23498,
    "rit": 799,
    "Ġtraveled": 14113,
    "Ġdelivers": 16316,
    "ĠLoop": 26304,
    "Ġdism": 18099,
    "afa": 28485,
    "Ġprove": 5879,
    "ĠBates": 35591,
    "Ġindex": 6376,
    "Ġpanel": 6103,
    "Ġcool": 3608,
    "Ġbase": 2779,
    "Ġplaying": 2712,
    "Ġinitiate": 22118,
    "Ġperce": 36974,
    "Ġbrightest": 33871,
    "âĢ¦\"": 9962,
    "Ġinsurers": 24668,
    "OFF": 27977,
    "Ġwrestlers": 41758,
    "ĠEndless": 26480,
    "fw": 44482,
    "uations": 6055,
    "Ġbarriers": 14725,
    "CO": 8220,
    "ĠCoff": 28584,
    "iti": 8846,
    "ĠDirectorate": 44437,
    "Ġflawed": 19556,
    "Ġthousand": 7319,
    "ĠBru": 8274,
    "Ġintroduced": 5495,
    "Ġlocate": 17276,
    "ĠShanahan": 48906,
    "iliary": 28129,
    "izarre": 12474,
    "ĠTab": 16904,
    "mans": 16221,
    "Ġbiologically": 44479,
    "Ġseparately": 13869,
    "Ġplumbing": 40199,
    "ĠDumb": 42989,
    "Ġoccurred": 5091,
    "ĠPrimordial": 44174,
    "ĠMarcel": 36547,
    "NOTE": 16580,
    "aste": 4594,
    "emale": 10144,
    "Ñı": 40623,
    "balanced": 27753,
    "ansom": 22011,
    "ãģ£": 33180,
    "ĠHumanity": 35629,
    "ĠSamar": 34077,
    "ĠLoaded": 42485,
    "ĠDPS": 25366,
    "Ġdisclose": 15771,
    "software": 43776,
    "Ġfinalized": 32013,
    "Ġinformant": 35710,
    "Ġslaves": 13384,
    "ĠWere": 15176,
    "Ġconcentrated": 17298,
    "Ġunlocking": 39052,
    "ĠPoly": 12280,
    "ĠBeyon": 37361,
    "Ġshakes": 29959,
    "ocide": 16207,
    "Ġgeography": 27876,
    "Ġincorporated": 16560,
    "Ġlottery": 22098,
    "Seven": 31334,
    "ĠRemix": 23896,
    "ĠCree": 45699,
    "ĠSHALL": 50163,
    "ĠHob": 17073,
    "ĠTher": 12634,
    "Ġantiqu": 27233,
    "ling": 1359,
    "Ġsidel": 33614,
    "Ġst": 336,
    "Ġprince": 19716,
    "oute": 13192,
    "ĠStreet": 3530,
    "Ġmarathon": 22336,
    "eson": 42038,
    "ĠOlymp": 7001,
    "ĠNaturally": 30413,
    "ĠBetsy": 45775,
    "Ġculmin": 24642,
    "ĠIndies": 42556,
    "Ġslowly": 6364,
    "Ġfictitious": 46718,
    "ĠSutherland": 47793,
    "IER": 38311,
    "itive": 1800,
    "864": 39570,
    "rost": 23341,
    "ranged": 34457,
    "oby": 26730,
    "Ġstorylines": 44880,
    "Ġstimulus": 19819,
    "Track": 24802,
    "Ġpatriotic": 33453,
    "Ġdeval": 35966,
    "aped": 5813,
    "Ġcoral": 29537,
    "ĠOut": 3806,
    "Ġforefront": 26401,
    "ĠDPR": 41176,
    "Ġ410": 32921,
    "ĠKaren": 18678,
    "ĠAlzheimer": 22434,
    "ithing": 44556,
    "Ġimplication": 26863,
    "Ġintrig": 13250,
    "ĠLopez": 22593,
    "Ġand": 290,
    "Ġ1904": 43785,
    "Ġ1889": 49545,
    "Ġ337": 42294,
    "Ġsprint": 18553,
    "ĠWH": 7655,
    "Ġpurple": 14032,
    "ĠLOVE": 27889,
    "Ġarises": 22068,
    "Ġextingu": 24995,
    "feet": 39690,
    "ĠGarg": 39013,
    "odynamics": 44124,
    "played": 21542,
    "ĠCompact": 37904,
    "Ġdenomination": 47491,
    "ĠJae": 34521,
    "pected": 7254,
    "Ġbride": 26619,
    "ĠQuery": 43301,
    "Ġcrust": 20048,
    "Ġmicrosc": 21145,
    "Ġcultivating": 45414,
    "Ġclutter": 45343,
    "Ġconscientious": 47963,
    "'-": 29001,
    "ĠPARK": 42358,
    "Ġweep": 49671,
    "ĠRodham": 41848,
    "ĠAlexander": 10009,
    "DIS": 26288,
    "Ġsignaling": 22049,
    "Ġuniforms": 22551,
    "olded": 48959,
    "ctions": 2733,
    "ver": 332,
    "Reviewed": 40266,
    "ĠNe": 3169,
    "ĠSTOP": 44934,
    "Win": 16643,
    "ĠDrops": 41692,
    "ĠFil": 7066,
    "ĠZ": 1168,
    "west": 7038,
    "Ġreceptor": 17408,
    "Ġaroma": 31242,
    "ĠComes": 34606,
    "Fail": 39044,
    "ulnerable": 38828,
    "lb": 23160,
    "ĠLever": 42365,
    "Ġtur": 7858,
    "Ġ2050": 32215,
    "Ġduo": 18545,
    "Ġfunctional": 10345,
    "LG": 41257,
    "Ġfertility": 21573,
    "Ġsheer": 15163,
    "Ġmon": 937,
    "Ġenact": 10865,
    "Ġpres": 906,
    "ĠRena": 27694,
    "Ġamateur": 18585,
    "ãĥ´": 29752,
    "Ġirritation": 35164,
    "Ġolds": 44979,
    "ĠHoffman": 29010,
    "Ġbas": 1615,
    "Shin": 44592,
    "ENSE": 24290,
    "Apps": 48433,
    "ĠOptimus": 44863,
    "rab": 25619,
    "308": 21495,
    "Ġtsp": 23053,
    "Ġcommentary": 14604,
    "ĠWizards": 21092,
    "Ġrouting": 28166,
    "CHAT": 31542,
    "mean": 32604,
    "Ġconduit": 44457,
    "ĠSTEP": 49154,
    "Ġlev": 23145,
    "Ġpasser": 30286,
    "ĠNab": 36099,
    "fig": 5647,
    "Ġbriefly": 11589,
    "Å": 129,
    "century": 14792,
    "erala": 33314,
    "oss": 793,
    "ĠOF": 3963,
    "Ġshelf": 18316,
    "ãĥĬ": 26229,
    "ĠJournalism": 37406,
    "ĠPedro": 28855,
    "igers": 34984,
    "Ġbandwagon": 49401,
    "Ġdessert": 23084,
    "usha": 46213,
    "device": 25202,
    "ĠMovie": 15875,
    "Slow": 36423,
    "war": 5767,
    "ĠInvest": 7488,
    "ĠSyd": 11415,
    "Ġaccording": 1864,
    "ãĥı": 37412,
    "Ġclinicians": 41883,
    "Semitism": 25406,
    "performance": 26585,
    "Ġinfantry": 21548,
    "make": 15883,
    "Ġchests": 34572,
    "Ġprojecting": 37298,
    "SI": 11584,
    "ietal": 21587,
    "anity": 19689,
    "umes": 8139,
    "ĠSalt": 13754,
    "oni": 14651,
    "ĠPasadena": 41010,
    "ĠOsama": 29236,
    "âĢĵâĢĵ": 25608,
    "Ġ``(": 11592,
    "Ġconsiders": 14358,
    "ĠBrain": 14842,
    "Ġassociate": 11602,
    "Ġwaitress": 44511,
    "ENTS": 15365,
    "ĠTucker": 25951,
    "___": 17569,
    "Ġmissing": 4814,
    "array": 18747,
    "Ġnucleus": 29984,
    "separ": 25512,
    "ĠCorrections": 40526,
    "Ġ198": 2757,
    "Ġ20": 1160,
    "ĠSyn": 16065,
    "Ġclone": 17271,
    "ĠJerusalem": 10843,
    "ivist": 30944,
    "ĠWilmington": 47251,
    "MN": 39764,
    "Ġexpectancy": 29098,
    "Choose": 31851,
    "ĠPip": 25149,
    "Ġocean": 9151,
    "Ġkeeper": 28356,
    "Ġscientific": 5654,
    "Ġwarfare": 15611,
    "Ġtraitor": 35731,
    "ĠYOU": 7013,
    "Ġsupremacist": 31352,
    "ĠVirt": 11285,
    "Ġambitious": 14742,
    "ecause": 3156,
    "Joshua": 47740,
    "ĠRecent": 22926,
    "256": 11645,
    "ĠMDMA": 34883,
    "Ġhandmade": 40973,
    "Ġcondemn": 15402,
    "ausible": 17178,
    "Ġstatist": 10118,
    "Ġrecapt": 36791,
    "Ġsegments": 17894,
    "Age": 23396,
    "ĠStorage": 20514,
    "Ġ:": 1058,
    "Ġenlarg": 26537,
    "ĠPreviously": 29875,
    "ĠUNESCO": 49372,
    "Ġcortex": 20223,
    "Ġbecomes": 4329,
    "ĠLack": 38289,
    "ort": 419,
    "pheus": 46421,
    "Ġ\\\\": 26867,
    "Ġchlorine": 43107,
    "ibrary": 4115,
    "ĠUSA": 4916,
    "Ġuncle": 7711,
    "Ġdisband": 35758,
    "ivering": 35598,
    "451": 36330,
    "Ġsupported": 4855,
    "ĠForge": 24855,
    "apego": 40561,
    "Ġcommercials": 30503,
    "Ġsoul": 5848,
    "ĠScientific": 22060,
    "Ġdistinguished": 18876,
    "ĠIN": 3268,
    "Ġadvisable": 46511,
    "Ġworkplace": 15383,
    "ĠDevelopers": 34152,
    "ĠCosta": 18133,
    "Ġeconomists": 16816,
    "Ġsubstant": 5925,
    "Ġrever": 33033,
    "ĠMeadow": 43868,
    "Ġrocks": 12586,
    "Ġenormous": 9812,
    "ĠSe": 1001,
    "Ġswaps": 43997,
    "Ġpolitically": 11889,
    "Ġmiracle": 20820,
    "Tax": 27017,
    "\"],": 33116,
    "ummy": 13513,
    "ĠComment": 18957,
    "Ġpub": 2240,
    "ĠFC": 10029,
    "Ġsummoned": 20056,
    "IES": 11015,
    "Photo": 6191,
    "Ġ05": 8870,
    "ĠOst": 38919,
    "Ø©": 45632,
    "Ġvex": 41548,
    "enforcement": 44976,
    "itic": 16233,
    "Ġendors": 14621,
    "Ġdetermin": 3416,
    "Ġ2600": 47197,
    "ĠEEG": 48749,
    "Ġhire": 11078,
    "reth": 40978,
    "ĠArist": 23203,
    "foo": 21943,
    "arak": 30447,
    "ĠSchools": 20357,
    "obyl": 46666,
    "Ġroster": 9354,
    "Ha": 23303,
    "Ġimpede": 43195,
    "pox": 42557,
    "ei": 20295,
    "England": 39163,
    "ari": 2743,
    "ĠGoo": 43456,
    "uesday": 3322,
    "elines": 20655,
    "Ġlengths": 20428,
    "ĠMenu": 21860,
    "Ġmiss": 2051,
    "Ġrobes": 32970,
    "Ġfaithfully": 42353,
    "Ġliteral": 18875,
    "Ġmisogyny": 36108,
    "Ġmitigate": 24237,
    "Mine": 24461,
    "ĠPal": 3175,
    "DP": 6322,
    "Ġintoxicated": 35344,
    "ĠDHCP": 43729,
    "Ġcrude": 14897,
    "ĠClear": 11459,
    "Ġdealt": 11829,
    "Ġ183": 28551,
    "Ġinnovations": 25438,
    "poons": 27575,
    "Ġearners": 37342,
    "tails": 26404,
    "Ġze": 41271,
    "Ġreprim": 41929,
    "hom": 26452,
    "Ġperme": 29298,
    "ij": 2926,
    "ola": 5708,
    "Ġcountering": 50043,
    "Ġsenses": 17627,
    "Ġprompting": 21550,
    "Ġadhesive": 43608,
    "ĠMoe": 46488,
    "ĠHOL": 49707,
    "clusively": 44307,
    "Reloaded": 36726,
    "mony": 9926,
    "worked": 32931,
    "ĠMarco": 16556,
    "Ġappliance": 45248,
    "--------------": 26171,
    "ĠGloves": 36407,
    "Ġyielded": 26403,
    "ĠGeorgian": 45262,
    "Ġallied": 22034,
    "@#&": 48193,
    "ĠAmendment": 8441,
    "202": 19004,
    "focused": 18143,
    "LI": 31271,
    "Ġpioneering": 36304,
    "ĠMoj": 40120,
    "Des": 5960,
    "ĠYellowstone": 47257,
    "Ġinvoked": 24399,
    "ifference": 33012,
    "ĠDF": 36323,
    "ĠIssues": 22852,
    "Employ": 29733,
    "Ġdowns": 21838,
    "Jud": 26141,
    "ĠKremlin": 19077,
    "Ġaudi": 40504,
    "boro": 21513,
    "Ġcombat": 5249,
    "Ġwritings": 19336,
    "elsius": 32495,
    "ĠMIC": 35878,
    "Ġlens": 10317,
    "ĠAve": 12761,
    "Ġtrou": 4057,
    "Ġafore": 18036,
    "Both": 10265,
    "Arm": 26560,
    "Ġ2010": 3050,
    "igure": 7047,
    "rets": 8004,
    "yan": 4121,
    "Ġdeprecated": 39224,
    "ormonal": 33792,
    "ĠProvince": 22783,
    "priced": 30883,
    "uph": 25689,
    "ĠFX": 19534,
    "icating": 12364,
    "Ven": 37522,
    "Breaking": 29449,
    "Ġconcern": 2328,
    "Ġpresentations": 27709,
    "Ġnoisy": 31210,
    "uture": 1832,
    "attering": 16475,
    "ravis": 16956,
    "Ġ\"+": 43825,
    "Ġaccommodating": 49389,
    "es": 274,
    "uz": 10277,
    "modern": 23922,
    "asta": 40197,
    "å§«": 40235,
    "ĠScots": 33860,
    "ĠOblivion": 34181,
    "Ġextensive": 7667,
    "Ġteamwork": 48424,
    "Ġlift": 10303,
    "ĠWells": 18292,
    "razen": 36409,
    "Ġsophistication": 44809,
    "Ġhath": 22027,
    "Adapter": 47307,
    "Ġwealthy": 11574,
    "Ġ[|": 49074,
    "isans": 26100,
    "Ġperennial": 39983,
    "yout": 32015,
    "/?": 20924,
    "ĠTSA": 32453,
    "Ġsacr": 7687,
    "Ġcombustion": 33607,
    "Personal": 30228,
    "ĠPRESIDENT": 50153,
    "Ġhelium": 43142,
    "Ta": 38586,
    "full": 12853,
    "ĠIncarnation": 47881,
    "Gay": 41787,
    "Ġsque": 35776,
    "iscons": 8795,
    "Ġneural": 17019,
    "likely": 40798,
    "ĠPalace": 15301,
    "Ġformats": 17519,
    "WithNo": 35992,
    "Ġmilitant": 18614,
    "seller": 32932,
    "Ġ[...]": 26894,
    "aban": 45094,
    "inka": 48955,
    "Ġfeas": 18401,
    "Ġworrisome": 48367,
    "Ġsponsored": 15901,
    "Ġexposed": 7362,
    "æ³": 37345,
    "ain": 391,
    "ĠRangers": 13804,
    "Ġreassured": 48171,
    "IGHTS": 34874,
    "Ġoverflow": 30343,
    "Ġreclaimed": 50225,
    "Ġirreversible": 43635,
    "Ġsafegu": 17937,
    "tec": 36281,
    "ĠNaples": 49404,
    "visor": 13131,
    "Ġ195": 24793,
    "Settings": 26232,
    "ĠDEM": 40101,
    "ummer": 31647,
    "ĠSpray": 43536,
    "ickr": 18994,
    "ast": 459,
    "Seeing": 36314,
    "floor": 28300,
    "ĠIvanka": 31002,
    "msg": 19662,
    "Amount": 31264,
    "Ġwinger": 31389,
    "Ġinteracts": 44020,
    "ALD": 44071,
    "Ġfrench": 48718,
    "Ġjerseys": 36354,
    "ĠDisorders": 37966,
    "engineering": 40321,
    "ĠChall": 10772,
    "Tools": 33637,
    "ĠRobinson": 12652,
    "ĠFerdinand": 44312,
    "Ġrehabilitation": 23668,
    "Ġundefined": 28721,
    "Ġoverse": 9125,
    "Ġconnectivity": 19843,
    "ĠHeath": 25846,
    "Ġciting": 12988,
    "stration": 12401,
    "ĠHem": 15617,
    "ĠCore": 7231,
    "ĠAll": 1439,
    "maps": 31803,
    "608": 28688,
    "Ġfitting": 15830,
    "dragon": 14844,
    "ĠPresidents": 35506,
    "Ġaver": 9076,
    "Ġsabotage": 31983,
    "Ġoldest": 13325,
    "esc": 3798,
    "Ġanomalies": 35907,
    "ĠMacintosh": 48087,
    "Ġconsultancy": 47827,
    "activ": 15791,
    "ĠPriority": 34416,
    "ĠDuck": 21867,
    "cient": 3456,
    "Ġdistressed": 36233,
    "Ġuncertainties": 36553,
    "byss": 15040,
    "Pan": 15730,
    "Ġhyper": 8718,
    "Ġemanating": 49085,
    "Ġdrivers": 6643,
    "Ġsmaller": 4833,
    "Ġridge": 32525,
    "ĠINFORMATION": 38044,
    "Ġeventual": 19657,
    "ĠMud": 32878,
    "Ġjustification": 17734,
    "Ġcallback": 23838,
    "hard": 10424,
    "itates": 38654,
    "Ġnotify": 19361,
    "ĠArmstrong": 21166,
    "Ġextermin": 42393,
    "rou": 472,
    "Ġtrash": 13913,
    "Ġbothered": 20466,
    "Ġscales": 16252,
    "ĠCurve": 46300,
    "Ġfamilial": 48376,
    "ĠSundays": 32714,
    "idelity": 23091,
    "Ġknights": 27536,
    "wards": 2017,
    "ĠGN": 15484,
    "ibe": 32438,
    "Ġgroup": 1448,
    "Ġensure": 4155,
    "Ġgram": 14599,
    "Ġcasino": 21507,
    "late": 17660,
    "immigration": 47620,
    "ĠToo": 14190,
    "ucking": 19296,
    "Ġ1895": 46425,
    "Ġconjecture": 46768,
    "Ġdiscontin": 19936,
    "enberg": 23140,
    "rax": 32040,
    "Ġsmartphone": 11745,
    "Ġstar": 3491,
    "ricks": 23706,
    "ĠWIN": 25779,
    "von": 26982,
    "sheet": 21760,
    "Ġnetted": 49403,
    "Ġscept": 30186,
    "ĠFisher": 14388,
    "ADVERTISEMENT": 19053,
    "uled": 6309,
    "nox": 35420,
    "Bar": 10374,
    "wit": 39289,
    "Ġpoaching": 49879,
    "wright": 29995,
    "ĠDraper": 48575,
    "ĠPreview": 22217,
    "ĠWitness": 21440,
    "und": 917,
    "Ġguerrilla": 42049,
    "Ġcuts": 6630,
    "audi": 31330,
    "ĠRhino": 47759,
    "ĠMessi": 36128,
    "Ġbig": 1263,
    "ĠElaine": 41463,
    "responsible": 24358,
    "ĠClark": 11264,
    "aston": 45966,
    "Ġpersonalities": 20929,
    "clud": 758,
    "Ġhauled": 43423,
    "MJ": 43421,
    "Ġendot": 46710,
    "zzo": 47802,
    "Ġfragments": 21441,
    "uge": 2217,
    "887": 46660,
    "ĠScare": 47605,
    "Ġtweaked": 38304,
    "ĠNutr": 37012,
    "Ġcoverage": 5197,
    "},{\"": 8762,
    "Ġba": 26605,
    "reddit": 10748,
    "Ġwrath": 26485,
    "Ġbends": 44370,
    "ZZ": 30148,
    "Ġrequirement": 9079,
    "Ġopting": 37529,
    "Ġthence": 41952,
    "ĠIM": 8959,
    "Ġhtt": 1841,
    "Ġ2048": 36117,
    "Ġridic": 8817,
    "hot": 8940,
    "Ġneglect": 17985,
    "ĠProud": 39725,
    "ĠMethods": 25458,
    "ĠAvalon": 39600,
    "Ġ3000": 20343,
    "Ġcollecting": 13157,
    "rio": 27250,
    "acebook": 2887,
    "eper": 5723,
    "Ġactivate": 15155,
    "ĠMaryland": 10769,
    "ĠGott": 39451,
    "Ġinnovate": 47916,
    "Ġenshr": 46919,
    "Ġcorpse": 21304,
    "Ġspa": 41900,
    "ĠBoo": 21458,
    "ater": 729,
    "Ġprosecute": 26057,
    "Ġinflated": 32387,
    "ĠFIA": 49432,
    "Ġrele": 1889,
    "Â¯Â¯Â¯Â¯Â¯Â¯Â¯Â¯": 15243,
    "fred": 39193,
    "ĠOmni": 44251,
    "astic": 3477,
    "ĠClient": 20985,
    "Ġhost": 2583,
    "Terry": 50241,
    "Ġfu": 14035,
    "ãĥł": 25795,
    "dm": 36020,
    "ĠMot": 6543,
    "possibly": 39363,
    "Res": 4965,
    "Ġfixation": 48785,
    "Ġconsequently": 25578,
    "Ġanimation": 11034,
    "ĠDEBUG": 16959,
    "Ġspr": 7500,
    ">>\\": 34516,
    "leader": 27940,
    "Self": 24704,
    "Ġblo": 24924,
    "Ġdisappear": 10921,
    "Ġfallacy": 39104,
    "ugal": 43778,
    "ĠObst": 46378,
    "ĠDenis": 33089,
    "ĠSevent": 35734,
    "Ġhorizont": 13736,
    "workshop": 38067,
    "eln": 45542,
    "ĠTribal": 40980,
    "Ġcreatine": 49346,
    "ĠWatch": 6305,
    "Ġexchanged": 22112,
    "ĠAgriculture": 19717,
    "ĠShadow": 8843,
    "Ġautomatically": 6338,
    "Ġfarther": 18485,
    "####": 4242,
    "Ġfrequent": 10792,
    "ĠBeijing": 11618,
    "uum": 13814,
    "rils": 41408,
    "Ġwidgets": 40803,
    "Ġlink": 2792,
    "ocument": 7990,
    "nel": 4954,
    "Ġcolonial": 17091,
    "Ġrigs": 45932,
    "Ġstaunch": 34700,
    "ĠKorea": 4969,
    "gmail": 14816,
    "aning": 7574,
    "Ġunab": 40986,
    "ĠJane": 12091,
    "img": 9600,
    "ĠStar": 2907,
    "ĠnaÃ¯ve": 41492,
    "Ġrightly": 22956,
    "ĠBowman": 38774,
    "Ġflips": 45971,
    "Warren": 43464,
    "Ġpodium": 27941,
    "Ġclosest": 11706,
    "ĠDecl": 16691,
    "ĠLayer": 34398,
    "png": 11134,
    "piracy": 8703,
    "ĠCivic": 31593,
    "ĠFelix": 29721,
    "Ġreluctantly": 35462,
    "Ġfunctions": 5499,
    "Run": 10987,
    "Ġyoutube": 35116,
    "athlon": 50236,
    "Ġeighth": 16974,
    "ward": 904,
    "ĠMehran": 42558,
    "ĠPort": 4347,
    "Ġcramped": 43295,
    "Ġm": 285,
    "ĠShia": 27424,
    "to": 1462,
    "Ġeternity": 28989,
    "Ġankles": 42415,
    "675": 42444,
    "ĠAval": 23587,
    "Ġnursing": 19167,
    "Ġnucle": 17751,
    "á¹": 26292,
    "ĠVilla": 25018,
    "uristic": 27915,
    "ĠDDR": 30085,
    "wana": 49484,
    "Ġsour": 11348,
    "Ġpseudonym": 48129,
    "ĠBoise": 38830,
    "ial": 498,
    "culture": 25584,
    "ĠWhy": 4162,
    "ĠTinder": 44043,
    "Ġheated": 16968,
    "bourg": 24256,
    "unciation": 24978,
    "PET": 47731,
    "Ġindefinitely": 24391,
    "Ġpaed": 40697,
    "Ġdownload": 4321,
    "orce": 8387,
    "iping": 34690,
    "Ġelig": 7453,
    "ucky": 5309,
    "Ġsummarizes": 46145,
    "amental": 6860,
    "ĠJensen": 32623,
    "Pres": 25460,
    "Ġ1997": 8309,
    "ĠIndigenous": 24033,
    "ĠDebor": 35913,
    "Ġtowers": 18028,
    "Ġtheatre": 21421,
    "Ġaccommodate": 15550,
    "ĠSelf": 12189,
    "ĠPodcast": 16036,
    "match": 15699,
    "Ġz": 1976,
    "word": 4775,
    "Font": 23252,
    "ĠStandards": 20130,
    "rehend": 23979,
    "Ġmini": 9927,
    "k": 74,
    "Ġcapabilities": 9889,
    "ĠTransfer": 20558,
    "Ġcleanup": 27425,
    "Ġperformed": 6157,
    "ĠPerformance": 15193,
    "Ġnationally": 18845,
    "ĠLumia": 38194,
    "462": 39997,
    "ĠAleppo": 18593,
    "Ġraft": 31812,
    "Ġapt": 15409,
    "Ġnotoriously": 29862,
    "ĠPav": 24081,
    "Ġexploiting": 29440,
    "Ġsleepy": 42023,
    "ĠKent": 8758,
    "Ġhypers": 45086,
    "Ġferry": 26450,
    "Ġchorus": 26441,
    "Ġprotesters": 9584,
    "asm": 8597,
    "ĠHover": 38452,
    "1001": 47705,
    "Ġparas": 17850,
    "ĠCount": 2764,
    "Ġracket": 37391,
    "naires": 43317,
    "cat": 9246,
    "Ġfledgling": 48525,
    "ĠAirport": 12690,
    "Ġpencil": 21613,
    "Ġtact": 6293,
    "ceived": 6471,
    "Ġreads": 9743,
    "Ġboundaries": 13215,
    "pointers": 47809,
    "ãģ«": 28618,
    "ĠIde": 16714,
    "Ġindisc": 30735,
    "iring": 3428,
    "rant": 5250,
    "ĠLer": 31831,
    "Ġrelevance": 23082,
    "ĠCongo": 25935,
    "Ġtries": 8404,
    "ardless": 14694,
    "ĠTA": 21664,
    "Ġresides": 29076,
    "Ġpuppy": 26188,
    "Ġhypothetical": 25345,
    "ACH": 16219,
    "Ġhem": 16869,
    "Ġsubjective": 19088,
    "ĠPacers": 31637,
    "Ġfreezes": 44389,
    "ĠRubin": 34599,
    "Former": 14282,
    "ĠPeb": 42507,
    "331": 31697,
    "Ġcomb": 1974,
    "Ġhorny": 42014,
    "Ġnarc": 16946,
    "ĠGret": 35877,
    "Ġinches": 8331,
    "hed": 704,
    "Ġdeny": 10129,
    "Ġslightly": 4622,
    "Ġdeletion": 39948,
    "407": 30120,
    "Ġappe": 35787,
    "Ġappears": 3568,
    "tested": 39612,
    "Ġunlocked": 14838,
    "ĠCeres": 37449,
    "Ġadolescence": 37258,
    "ĠAdditional": 15891,
    "ĠHonestly": 34173,
    "ĠSwe": 19372,
    "rower": 46992,
    "Che": 7376,
    "closed": 20225,
    "Ġscreenings": 41377,
    "Ġrice": 11464,
    "Ġ911": 16679,
    "Ġobject": 2134,
    "manager": 37153,
    "Ġ1": 352,
    "Ġprotections": 15018,
    "Ġmutual": 13584,
    "batch": 43501,
    "Ġreferrals": 44285,
    "Ġâľĵ": 24762,
    "Ġcrept": 47092,
    "ĠNewfoundland": 43867,
    "CTV": 30428,
    "Ġunrem": 49733,
    "Ġundertook": 45730,
    "ĠAires": 44692,
    "Ġ698": 39861,
    "ety": 2963,
    "Twitter": 14254,
    "ĠCLR": 49896,
    "Ġnoon": 19613,
    "ĠMaduro": 33007,
    "pad": 15636,
    "Ġsedan": 38988,
    "Ġourselves": 6731,
    "Ġstrips": 22670,
    "ĠRich": 3998,
    "getic": 24321,
    "ĠClever": 42486,
    "Pain": 38490,
    "theless": 9603,
    "Ġengage": 8209,
    "Ġ408": 41247,
    "Ġver": 3326,
    "ĠInher": 47025,
    "ĠGalactic": 23509,
    "427": 42363,
    "ĠLikes": 46077,
    "ĠHoll": 11806,
    "Ġrated": 13178,
    "edo": 24757,
    "Ġcripp": 20971,
    "\"}],\"": 42785,
    "Ġmastermind": 41353,
    "ĠDefense": 5947,
    "Ġstruggled": 11615,
    "Ġfasting": 24845,
    "Ġalert": 7995,
    "ĠTrials": 28945,
    "Ġwicked": 20589,
    "Men": 10418,
    "ploma": 35728,
    "ĠDane": 42999,
    "famous": 45143,
    "Ġ42": 5433,
    "ĠTours": 42998,
    "422": 44361,
    "types": 19199,
    "andr": 46273,
    "ssl": 45163,
    "Ġmechan": 3962,
    "\":-": 48219,
    "Ġapology": 17029,
    "Nevertheless": 29011,
    "Ġreference": 4941,
    "Ġbounced": 31318,
    "ĠContext": 30532,
    "Ġretaliate": 50081,
    "breaking": 13395,
    "Ġabusers": 38991,
    "reply": 47768,
    "ĠEV": 8696,
    "Ġsuppress": 18175,
    "Ġadds": 6673,
    "ĠMexican": 10816,
    "317": 34125,
    "Ġcozy": 37438,
    "ĠSmash": 18214,
    "Ġcombined": 5929,
    "Ġphrase": 9546,
    "resh": 3447,
    "ĠTablet": 42399,
    "ĠHirosh": 35763,
    "Ġignorant": 20109,
    "ĠWorks": 10933,
    "Ġshipments": 29311,
    "JD": 37882,
    ")</": 36475,
    "358": 31128,
    "HAHA": 21271,
    "ĠWy": 12958,
    "Ġvisually": 22632,
    "mond": 6327,
    "ĠAugustus": 48339,
    "mom": 32542,
    "Ġclim": 5424,
    "antic": 5109,
    "ĠBret": 39420,
    "Ġdimin": 12110,
    "ogenic": 15147,
    ")âĢĶ": 27920,
    "aturdays": 39724,
    "Ġmortals": 49008,
    "ĠNurse": 42724,
    "ĠMoreno": 43269,
    "Ġquarters": 13620,
    "ĠO": 440,
    "Ġadherence": 34721,
    "Ġscrewed": 27527,
    "Ġears": 11368,
    "If": 1532,
    "ĠTheodore": 36494,
    "Ġsockets": 37037,
    "ASH": 11211,
    "Quote": 25178,
    "Ġobligations": 13675,
    "Adam": 23159,
    "agnar": 30475,
    "Ġwildlife": 15599,
    "Ġsailor": 43272,
    "åĳ": 37772,
    "Ġfallout": 27707,
    "ĠLana": 47492,
    "ĠCertificate": 27895,
    "Ġdatasets": 40522,
    "Ġbroccoli": 44653,
    "rison": 7426,
    "ĠPeter": 5613,
    "ĠVanilla": 33897,
    "Ġerr": 11454,
    "Ġlicensed": 11971,
    "TeX": 49568,
    "Ġswift": 14622,
    "Ġlashes": 40999,
    "ĠDemocrat": 9755,
    "Neill": 26538,
    "era": 8607,
    "Ġenables": 13536,
    "Ġacknowledged": 10810,
    "EO": 4720,
    "Ġsomething": 1223,
    "Ġwells": 22571,
    "RESULTS": 46274,
    "Marie": 44507,
    "ĠTranscript": 42978,
    "Ġargues": 11673,
    "iuses": 44666,
    "Ġlest": 27380,
    "Cash": 35361,
    "aun": 1942,
    "ĠSerpent": 30177,
    "Ġanyway": 6949,
    "erm": 7780,
    "ĠFAC": 44216,
    "Ġscrutiny": 14521,
    "Sac": 38318,
    "rosis": 37172,
    "Ġtell": 1560,
    "ĠNBN": 40841,
    "Ġwidest": 46232,
    "osaurus": 47650,
    "rict": 2012,
    "post": 7353,
    "Because": 8128,
    "ĠMinor": 15367,
    "idated": 41475,
    "arate": 30748,
    "Id": 7390,
    "ĠSS": 6723,
    "ĠSmoke": 25416,
    "financial": 46921,
    "Ġlament": 23146,
    "ĠChristine": 26088,
    "rug": 2143,
    "login": 38235,
    "Ġwiret": 33509,
    "ĠCommodore": 48808,
    "Aid": 44245,
    "Ġplug": 6107,
    "]'": 49946,
    "ĠUW": 33436,
    "ministic": 49228,
    "Ġmammal": 46103,
    "appropriate": 13335,
    "conom": 1519,
    "ĠCOR": 23929,
    "Ġambush": 34298,
    "Ġcorporations": 10225,
    "ĠCrowd": 29452,
    "ĠDLC": 18068,
    "imated": 15655,
    "Ġdefe": 7503,
    "pring": 12667,
    "Ġcaptain": 10654,
    "ĠSpeedway": 46000,
    "ĠBuilder": 35869,
    "ĠTape": 40849,
    "adia": 29523,
    "ĠTS": 26136,
    "ifts": 19265,
    "Ġcrowds": 15779,
    "hei": 27392,
    "ĠSantana": 49067,
    "ĠTough": 37223,
    "ao": 5488,
    "Ġincomplete": 17503,
    "ĠBad": 7772,
    "levision": 5024,
    "Ġgoblin": 44625,
    "uddenly": 18865,
    "alys": 26266,
    "Ġatten": 31919,
    "Ġtumble": 47978,
    "Ġchromos": 22630,
    "Phill": 41970,
    "Ġwatches": 16860,
    "046": 45438,
    "Ġdisappearing": 28867,
    "chemical": 31379,
    "ĠTehran": 20882,
    "Ġ...": 2644,
    "flies": 27959,
    "Ġhoped": 10719,
    "ĠTo": 1675,
    "olia": 22703,
    "ĠWii": 16591,
    "Ġissuer": 44168,
    "Fort": 21926,
    "488": 33646,
    "Ġrationality": 45627,
    "Ġsteadily": 18434,
    "lator": 41880,
    "Ġexacerbate": 49522,
    "ĠCIA": 7688,
    "Ġapostle": 46329,
    "ĠICO": 30674,
    "wed": 19103,
    "cerpt": 17040,
    "ĠBird": 14506,
    "Better": 28971,
    "JJ": 32178,
    "Ġafternoon": 6672,
    "ĠIngredients": 33474,
    "Registered": 47473,
    "biased": 38002,
    "ĠTT": 26653,
    "Ġglut": 25276,
    "ĠAlv": 33414,
    "Ġnetworking": 19140,
    "Ġdrinking": 7722,
    "ĠCatalog": 44515,
    "Ġantidepress": 27293,
    "Wheel": 45307,
    "oids": 10994,
    "Tele": 31709,
    "ĠArgument": 45751,
    "ĠJen": 13364,
    "ĠNeighbor": 28708,
    "berg": 3900,
    "Ġambig": 18203,
    "ĠAmend": 32218,
    "ĠFacilities": 48939,
    "Jew": 23119,
    "ĠFebruary": 3945,
    "names": 14933,
    "ECD": 27295,
    "Ġdiscussion": 5114,
    "Ġstaffing": 36700,
    "ĠPhen": 34828,
    "ctuary": 15258,
    "Ġdumb": 13526,
    "Ġ970": 40463,
    "Ġgraphene": 42463,
    "ĠOpp": 9385,
    "Ġdescriptor": 43087,
    "ĠFritz": 45954,
    "ple": 1154,
    "Figure": 11337,
    "ammu": 49487,
    "ĠRupert": 34315,
    "ĠLair": 15067,
    "Ġbooming": 32017,
    "Meta": 48526,
    "ĠIvory": 37499,
    "sburg": 30359,
    "Ġkios": 46739,
    "Ġvascular": 39495,
    "Ġrocking": 38059,
    "ATCH": 11417,
    "ĠFleming": 42439,
    "operation": 27184,
    "Ġdams": 40907,
    "Ġpermanent": 7748,
    "ches": 2052,
    "OUGH": 32632,
    "Ġdomestically": 42127,
    "ĠCaval": 21753,
    "ITION": 17941,
    "ĠSlav": 34314,
    "Ġpieces": 5207,
    "ĠZimmer": 18926,
    "&": 5,
    "ĠFinished": 42931,
    "Ġadvantages": 13391,
    "ĠScorp": 28097,
    "Ġdem": 1357,
    "Ġtcp": 48265,
    "Ġalgorith": 8385,
    "ĠBD": 28023,
    "Ġscarce": 18549,
    "Ġcomprehension": 35915,
    "ĠError": 13047,
    "Ġwetlands": 49297,
    "ĠSIG": 33993,
    "Ġactivism": 23034,
    "CCC": 46361,
    "Ġprotective": 14153,
    "anim": 11227,
    "ĠRow": 11314,
    "Ġsame": 976,
    "Ġcollapsed": 14707,
    "Ġeldest": 34331,
    "Ġdisorder": 8967,
    "ĠPixar": 46706,
    "Ġgrocer": 34185,
    "Ġstarred": 31636,
    "64": 2414,
    "Ġinspires": 38934,
    "ĠSTL": 37269,
    "Ġshorter": 12238,
    "Listener": 33252,
    "ĠJong": 17960,
    "Ġdesperately": 16459,
    "Ġrepressive": 44430,
    "Ġbranch": 8478,
    "Ġfifty": 15334,
    "ĠShaun": 35188,
    "izer": 7509,
    "ortality": 28337,
    "Ġfeeble": 46299,
    "leanor": 41807,
    "Ġcitizens": 4290,
    "Ġspite": 15275,
    "Ġcame": 1625,
    "\",\"": 2430,
    "Ġoverturned": 27153,
    "Ġlull": 42858,
    "tsy": 34293,
    "Ġaccelerator": 44219,
    "ĠFo": 19434,
    "PO": 16402,
    "Ġcollapse": 9807,
    "ĠLep": 42957,
    "roup": 3233,
    "Ġexpectation": 17507,
    "Ġdeviation": 28833,
    "object": 15252,
    "ĠFiorina": 49028,
    "ĠAchieve": 29027,
    "ĠAki": 48663,
    "ĠDiabetes": 39569,
    "Ġatmosphere": 8137,
    "ĠMeier": 40860,
    "ĠMorty": 30395,
    "Ġvote": 3015,
    "ĠObject": 9515,
    "Ġrooftop": 33880,
    "Ġfeudal": 37591,
    "ĠBean": 26510,
    "Ġprocedural": 27931,
    "Ġconclusions": 13242,
    "ĠSem": 12449,
    "Ġcouncil": 6745,
    "Ġeven": 772,
    "Ġperjury": 47816,
    "Ġinterim": 19303,
    "Ġmanip": 7704,
    "ĠAndromeda": 34542,
    "Ġdesigners": 15441,
    "ĠBund": 13319,
    "eye": 25379,
    "Fortunately": 31276,
    "ership": 49437,
    "Ġdiscuss": 2112,
    "Ġhasn": 5818,
    "Ġnightmares": 33301,
    "Ġindict": 16056,
    "Hal": 40202,
    "Based": 15001,
    "Ġfines": 17176,
    "Ġclosed": 4838,
    "Ġtricked": 42608,
    "outh": 1536,
    "Hyp": 49926,
    "ĠWisdom": 24075,
    "ĠYue": 32854,
    "icator": 26407,
    "Ġconglomerate": 50240,
    "Ġbiases": 29275,
    "Ġselections": 28224,
    "Ġeager": 11069,
    "Regular": 40164,
    "ĠHerm": 18113,
    "fires": 27312,
    "ĠP": 350,
    "Ġinitial": 4238,
    "ĠFrankie": 48535,
    ".-": 7874,
    "ansky": 49792,
    "Ġtraumat": 38510,
    "Ġproper": 1774,
    "onomic": 40036,
    "ĠSqu": 5056,
    "ĠMarshall": 13606,
    "ĠWinn": 19454,
    "ample": 1403,
    "raise": 40225,
    "Ġsubst": 3293,
    "ites": 2737,
    "ĠClover": 41154,
    "Ġorient": 11367,
    "Ġwhisky": 39501,
    "URRENT": 39237,
    "Ġcaveat": 36531,
    "Ġfaces": 6698,
    "hai": 44488,
    "Jeff": 19139,
    "ĠMacron": 31362,
    "owl": 4883,
    "Ġprotein": 7532,
    "flows": 44041,
    "Ġprogram": 1430,
    "ĠNW": 21966,
    "blank": 27190,
    "Ġbacter": 19241,
    "Ġgam": 9106,
    "ud": 463,
    "Ġsatisfaction": 14676,
    "Ġdesignation": 22566,
    "Ġmonstrous": 29100,
    "Ġtermed": 28569,
    "Ġclause": 13444,
    "109": 14454,
    "ĠStevens": 20019,
    "ĠFabric": 37759,
    "Ġ165": 21409,
    "perate": 30052,
    "Ġsyntax": 15582,
    "Ġinclusive": 19889,
    "mob": 39949,
    "ĠBudapest": 40959,
    "ĠRac": 24746,
    "Turkey": 31632,
    "Ġtablespoon": 33107,
    "Ġdisplaying": 19407,
    "Ġarchitect": 7068,
    "}.": 27422,
    "Ġyen": 28808,
    "ĠEmer": 10320,
    "Ġfunctionally": 48410,
    "Ġpromising": 11781,
    "stroke": 30757,
    "ĠTrad": 8397,
    "iffe": 22391,
    "Ġworkload": 26211,
    "Ġappra": 28309,
    "ĠWade": 19136,
    "ĠPocket": 27290,
    "ĠORIG": 43901,
    "Ġdisrupted": 30067,
    "tta": 25854,
    "Ġway": 835,
    "Ġrivers": 18180,
    "Ġtruth": 3872,
    "Ġgreens": 30966,
    "rors": 5965,
    "Hart": 44719,
    "Ġannoyed": 25602,
    "Ġblasts": 29895,
    "________": 2602,
    "ĠAU": 27548,
    "Ġcave": 11527,
    "Progress": 32577,
    "ĠKeith": 14926,
    "ategic": 47917,
    "ograms": 26836,
    "Ġcurrents": 28629,
    "orescent": 35414,
    "Ġinterested": 4609,
    "ĠClapper": 44834,
    "Ġbashing": 48419,
    "ĠChurches": 46446,
    "ĠâĢº": 37855,
    "ĠNose": 47880,
    "ĠREPL": 45285,
    "ĠFire": 3764,
    "Ġundet": 40615,
    "Ġalmond": 26948,
    "Ġbonded": 40270,
    "Ġillumination": 40951,
    "HUD": 28410,
    "ĠComponents": 36109,
    "Ġinstituted": 32954,
    "Ġpipes": 19860,
    "ĠVirtual": 15595,
    "ocrats": 21988,
    "otions": 36083,
    "Ġvehement": 36284,
    "por": 1819,
    "Ġcaptains": 37551,
    "Ġeccentric": 29303,
    "Ġgrapple": 42146,
    "ĠFinish": 32585,
    "âĺħâĺħ": 28353,
    "Ġconvertible": 41637,
    "Ġub": 20967,
    "Ġoutpatient": 49335,
    "xe": 27705,
    "ãĤ´ãĥ³": 22997,
    "Meat": 35620,
    "College": 38951,
    "RECT": 23988,
    "ĠScholar": 11713,
    "Ġcond": 1779,
    "Ġeconomies": 16533,
    "Ġworries": 18572,
    "Ġinspired": 7867,
    "ĠFIR": 23703,
    "Ġcorrosion": 41677,
    "ĠSP": 6226,
    "Ġviewership": 48347,
    "Notice": 26396,
    "ĠMelee": 21058,
    "ĠClinical": 21234,
    "Ġderailed": 48769,
    "indu": 10259,
    "Ġwounded": 10657,
    "ĠRatings": 36826,
    "Ġmissionary": 34692,
    "ĠOo": 45801,
    "eon": 23277,
    "Ġsuggest": 1950,
    "lis": 27999,
    "Unless": 28042,
    "Ġnumerous": 6409,
    "Ġfort": 6285,
    "Ġelectr": 30880,
    "ussion": 11956,
    "ĠVariety": 39143,
    "åĩ": 49035,
    "Ġhysteria": 38893,
    "ivation": 26939,
    "straight": 42729,
    "Ġhanging": 10938,
    "thens": 43895,
    "ENE": 39267,
    "Ġdown": 866,
    "VIDIA": 13171,
    "Ġ17": 1596,
    "'re": 821,
    "Ġpredators": 23311,
    "ĠKathy": 33726,
    "Ġstretched": 19110,
    "ĠArchae": 32187,
    "Ġfec": 27685,
    "ND": 8575,
    "Gaza": 48790,
    "Ġannotation": 23025,
    "owski": 12079,
    "ĠPlayoffs": 42361,
    "goal": 35231,
    "Ġmislead": 42154,
    "ĠRyan": 6047,
    "ĠFal": 9596,
    "Ġballs": 11333,
    "ĠQuantum": 29082,
    "ĠLeaves": 46597,
    "Third": 22747,
    "134": 19880,
    "Water": 19184,
    "ĠBrock": 20501,
    "Ġ364": 44969,
    "ĠAvatar": 26703,
    "anski": 44978,
    "istent": 7609,
    "backs": 10146,
    "ModLoader": 24847,
    "554": 44218,
    "Ġfighters": 8486,
    "ĠSub": 3834,
    "ĠBooth": 36389,
    "ĠÂłÂł": 47654,
    "Answer": 33706,
    "ï¸": 35266,
    "Ġ231": 34598,
    "Upload": 41592,
    "Ġmoderators": 37265,
    "hibited": 44139,
    "ĠTrick": 30028,
    "Ġpurchased": 8155,
    "ĠVenture": 35686,
    "Ġbearings": 39872,
    "arger": 32270,
    "Ġrepair": 9185,
    "ige": 10045,
    "ractical": 36112,
    "cha": 11693,
    "Ġadult": 4044,
    "google": 13297,
    "Ġcaring": 18088,
    "room": 3823,
    "Ġstale": 39985,
    "Climate": 37649,
    "orsche": 26164,
    "mented": 12061,
    "udeau": 16229,
    "Ġsmiled": 13541,
    "Ġrepairing": 39005,
    "ĠLinks": 21691,
    "Ġfal": 24215,
    "KR": 30758,
    "stop": 11338,
    "Ġtransmitting": 39573,
    "alogue": 30326,
    "ĠUniform": 35712,
    "ĠAssad": 13032,
    "pit": 15544,
    "ĠTrinidad": 48269,
    "cens": 42595,
    "Ġ([": 29565,
    "ancy": 3883,
    "++": 4880,
    "shake": 32431,
    "ĠResort": 28345,
    "Ġinstantly": 11101,
    "ĠSussex": 41588,
    "erg": 6422,
    "Ġpseud": 25038,
    "Ġhunter": 19177,
    "Ġdrought": 18393,
    "ospital": 3531,
    "Micro": 13031,
    "RL": 7836,
    "Ġnation": 3277,
    "Ġillustration": 20936,
    "yn": 2047,
    "Ġarchitects": 29518,
    "Ġindicators": 21337,
    "Ġtransmission": 11478,
    "Category": 27313,
    "Ġpage": 2443,
    "Ġunaffected": 35290,
    "Ġintersection": 16246,
    "BY": 17513,
    "ĠTransit": 22325,
    "254": 24970,
    "Ġtang": 13875,
    "+(": 33747,
    "Ġintimately": 42075,
    "umeric": 39223,
    "Ġado": 50129,
    "ĠSheen": 50189,
    "ĠMex": 4413,
    "ery": 1924,
    "throw": 16939,
    "±": 109,
    "ĠBhar": 33653,
    "Ġreplay": 24788,
    "ĠEn": 2039,
    "ĠTemple": 10857,
    "zed": 8863,
    "Ġformation": 9978,
    "ĠLaf": 31528,
    "ĠFernand": 26366,
    "Ġscripting": 36883,
    "ha": 3099,
    "Ġspeech": 4046,
    "Ġmagnesium": 33525,
    "Ġhum": 1311,
    "Ġcrushing": 24949,
    "Ġrate": 2494,
    "ĠZealand": 8936,
    "ĠOak": 9121,
    "ĠISPs": 28677,
    "ĠTAG": 37801,
    "Ġbelong": 5594,
    "selves": 2020,
    "ĠEss": 11985,
    "Ġdescriptive": 35644,
    "Ġinfused": 37681,
    "ĠUKIP": 37809,
    "ĠScream": 36306,
    "ĠJenkins": 21835,
    "Ġstyl": 22152,
    "ĠBlackBerry": 30845,
    "Ġconnect": 2018,
    "ĠENG": 36924,
    "Ġclosing": 9605,
    "Ġcalmed": 49566,
    "ĠTrack": 17762,
    "Gov": 23774,
    "ĠBuenos": 46210,
    "ultz": 22150,
    "Hope": 34456,
    "ĠVac": 25709,
    "Ġreproduction": 20728,
    "raw": 1831,
    "Ġcreating": 4441,
    "forced": 12072,
    "erential": 33369,
    "ĠRiyadh": 37236,
    "Ġshall": 2236,
    "Ġjammed": 45479,
    "ĠPly": 36526,
    "ĠEbola": 15825,
    "ĠTheresa": 20251,
    "Ġdropped": 5710,
    "rendered": 26238,
    "ĠNOR": 25273,
    "apply": 39014,
    "Ġpocket": 10000,
    "orge": 3643,
    "annot": 34574,
    "Ġsolo": 12199,
    "Ġgiant": 6175,
    "lesi": 36027,
    "ĠMant": 36987,
    "ifty": 24905,
    "Ġdone": 1760,
    "elligence": 3480,
    "Ġ000": 12877,
    "Ġintoxication": 44624,
    "Ġfreshman": 18621,
    "ĠKern": 49132,
    "Ġfading": 31465,
    "Ġsnug": 47032,
    "Ġqueries": 20743,
    "Ġreaff": 30384,
    "actually": 37739,
    "ĠRadical": 38352,
    "Ġmillions": 5242,
    "Ġpics": 27618,
    "ĠFrederick": 26113,
    "WHAT": 32971,
    "Ġpod": 24573,
    "both": 16885,
    "iltr": 19438,
    "ĠMbps": 41022,
    "many": 21834,
    "Ġlifted": 13663,
    "TH": 4221,
    "ĠÂł": 5624,
    "Ġadapting": 35135,
    "Ġcompress": 27413,
    "ĠLawyers": 42693,
    "leys": 21325,
    "Ġresisted": 26643,
    "ĠDonovan": 31565,
    "ĠTED": 38436,
    "fleet": 33559,
    "Ġantib": 11310,
    "Adding": 32901,
    "ĠRuin": 46085,
    "ĠWee": 48643,
    "iary": 8042,
    "life": 6042,
    "45": 2231,
    "Ġhaircut": 45548,
    "Metro": 45141,
    "Ġunus": 7242,
    "Ġunveiled": 18475,
    "ĠStyles": 44963,
    "ghost": 38933,
    "duction": 11124,
    "OO": 6684,
    "yellow": 36022,
    "Ġwiping": 36906,
    "Ġair": 1633,
    "Clearly": 30638,
    "Ġsynchronization": 42133,
    "ĠSociety": 7023,
    "ĠHelsinki": 47688,
    "ĠOpportun": 24922,
    "ing": 278,
    "isky": 34041,
    "ĠLunch": 40514,
    "neapolis": 19359,
    "ylon": 15158,
    "Ġcort": 12794,
    "Ġentrusted": 37984,
    "Ġvag": 14334,
    "Ġ1930": 15533,
    "ĠCarmen": 46137,
    "enton": 26673,
    ",âĢĶ": 34976,
    "Ġspiritually": 45319,
    "addafi": 32113,
    "Ġfinite": 27454,
    "irie": 28191,
    "f": 69,
    "ĠSanctuary": 27036,
    "Ġsummary": 10638,
    "hound": 39047,
    "iotics": 18296,
    "ĠCyborg": 46114,
    "329": 37967,
    "Ġsusceptible": 22084,
    "Ġterm": 3381,
    "aepernick": 28333,
    "Whoever": 47896,
    "Ġback": 736,
    "S": 50,
    "stud": 19149,
    "Ġmixing": 17090,
    "ĠBoulder": 27437,
    "paces": 43076,
    "juven": 39427,
    "Ġbringing": 6079,
    "Ġtrip": 5296,
    "ĠDN": 45080,
    "Ġmanually": 14500,
    "ernels": 44930,
    "awar": 48841,
    "Ġfeminine": 23564,
    "cientious": 43037,
    "Ġrushes": 38596,
    "Ġreputation": 8507,
    "Ġspecialist": 15670,
    "RIPT": 46023,
    "charged": 17200,
    "Ġretaining": 26645,
    "til": 47163,
    "ĠJihad": 35243,
    "Ġpunish": 6878,
    "ategory": 11606,
    "Ġdrill": 16007,
    "Ġpainful": 12132,
    "Ġcornerback": 26683,
    "Ġcould": 714,
    "Ġpairing": 27356,
    "icycle": 35298,
    "Ġillness": 8526,
    "Disc": 15642,
    "peror": 8723,
    "Writing": 33874,
    "iband": 35967,
    "orld": 1764,
    "Ġemperor": 23129,
    "artz": 13636,
    "Lost": 31042,
    "Ġincludes": 3407,
    "Steven": 28292,
    "aird": 41620,
    "Fly": 33771,
    "essed": 6676,
    "Preview": 48835,
    "ĠHeb": 27030,
    "ĠBrooklyn": 12232,
    "Ġview": 1570,
    "Ġtricky": 17198,
    "cuts": 23779,
    "Ġmy": 616,
    "ags": 3775,
    "holder": 13829,
    "ĠFoley": 35535,
    "rod": 14892,
    "rg": 41345,
    "ogle": 2467,
    "ĠAgency": 7732,
    "ĠKul": 50024,
    "Ġleaking": 25243,
    "unit": 20850,
    "ĠApril": 3035,
    "ĠMiles": 20404,
    "ĠBauer": 41971,
    "Ġelse": 2073,
    "Ġaverage": 2811,
    "Ġinterpreter": 28846,
    "ĠTanks": 31508,
    "Ġ512": 22243,
    "otic": 6210,
    "Ġperks": 28429,
    "tip": 22504,
    "Tu": 47247,
    "Ġinflicted": 27010,
    "qu": 421,
    "ĠAC": 7125,
    "Ġcommonplace": 33488,
    "inity": 6269,
    "blog": 14036,
    "ĠTube": 34510,
    "Charg": 28316,
    "Ġlipid": 34073,
    "Ġconf": 1013,
    "ĠSiri": 34461,
    "ensibly": 28508,
    "usalem": 10555,
    "iliate": 49826,
    "Ġscalp": 39287,
    "ĠPUBLIC": 44731,
    "Ġpref": 7694,
    "Ġhandcuffed": 41529,
    "Ġlined": 16566,
    "ãģĻ": 33623,
    "Ġmatt": 23963,
    "icia": 33577,
    "Ġqualifier": 39265,
    "storm": 12135,
    "ĠOffic": 6328,
    "annah": 25761,
    "nai": 38600,
    "itution": 2738,
    "Ġpin": 6757,
    "Ġtimeless": 36464,
    "Ġfour": 1440,
    "Ġsuspected": 9885,
    "ĠFeaturing": 39778,
    "ĠInclude": 40348,
    "Ġdiplomats": 24836,
    "Ġserved": 4983,
    "Ġgle": 26852,
    "clus": 2527,
    "ĠXV": 29922,
    "250": 9031,
    "deals": 14302,
    "udos": 42418,
    "ĠCorporation": 10501,
    "Day": 12393,
    "Ġharms": 34859,
    "ĠEclipse": 30991,
    "ti": 20259,
    "Ġrespir": 21483,
    "ature": 1300,
    "Ġflesh": 11222,
    "Ġeaves": 42174,
    "556": 37864,
    "ĠDirection": 41837,
    "imen": 19027,
    "Ġkcal": 49504,
    "Ġcompiled": 14102,
    "Ġprincess": 21752,
    "\"âĢĶ": 15327,
    "DX": 36227,
    "ĠRochester": 27008,
    "Ġpos": 1426,
    "abama": 8809,
    "ĠDar": 7491,
    "tips": 41315,
    "Ġmuch": 881,
    "Ġanalges": 48895,
    "Ġwrongly": 31238,
    "humane": 44766,
    "LEY": 25173,
    "Ġ680": 40554,
    "ĠShards": 46464,
    "conference": 41124,
    "ĠBRA": 39947,
    "Ġconc": 1673,
    "ĠCorrectional": 48371,
    "Ġqueues": 43359,
    "Ġrec": 664,
    "ĠGut": 27549,
    "ographical": 17046,
    "oufl": 28012,
    "Myth": 41444,
    "ĠPROT": 48006,
    "GEN": 35353,
    "ĠMaj": 12390,
    "Ġunlocks": 23872,
    "Ġear": 1027,
    "Ġsweaty": 47599,
    "Ġfulfilled": 23085,
    "vard": 10187,
    "ĠBerk": 35595,
    "Ġtrait": 16708,
    "ĠKatrina": 33251,
    "starting": 38690,
    "Ġtouring": 25583,
    "Ġhippocampus": 38587,
    "Ġnetworks": 7686,
    "Ġ107": 16226,
    "Ġdrafting": 26931,
    "Ġheadsets": 44257,
    "Ġcrowd": 4315,
    "Ġ{:": 46110,
    "umo": 43712,
    "Ġyard": 12699,
    "ids": 2340,
    "ops": 2840,
    "Ġantidote": 50131,
    "Ġexternally": 45107,
    "Ġspine": 19656,
    "neys": 20141,
    "Ten": 24893,
    "Ġanecdote": 49533,
    "Ġlamented": 40176,
    "Ġbans": 20075,
    "Ġpopulist": 26815,
    "\"": 1,
    "ĠEduc": 7005,
    "rial": 4454,
    "izont": 12071,
    "ĠMcCabe": 45395,
    "ĠMexico": 5828,
    "short": 19509,
    "until": 28446,
    "Ġremorse": 34081,
    "ogene": 20878,
    "Ġkittens": 45584,
    "ĠJolly": 40276,
    "Ġforgiveness": 26027,
    "Ġrevival": 26624,
    "Ġducks": 39694,
    "Ġunforgettable": 45504,
    "Ġstable": 8245,
    "Database": 38105,
    "Ġdram": 4850,
    "iso": 26786,
    "ĠGreek": 8312,
    "Roy": 32027,
    "Ïģ": 33643,
    "Ġreinvent": 36608,
    "Ġowns": 12216,
    "ĠNon": 8504,
    "Ġembody": 48061,
    "reements": 28919,
    "Ġsurfing": 36254,
    "ĠEL": 17852,
    "tick": 42298,
    "Ġmartyr": 28009,
    "Ġdrying": 29621,
    "Ġfades": 41381,
    "Anyone": 21129,
    "Mail": 25804,
    "ĠKingston": 34612,
    "Ġ119": 15136,
    "Ġblown": 16318,
    "Ġconstit": 7892,
    "Utah": 44350,
    "ouver": 10166,
    "Ġforge": 28325,
    "Ġterrible": 7818,
    "irling": 24297,
    "Ġpursue": 10660,
    "Ġbouts": 41764,
    "Chuck": 44324,
    "odied": 32255,
    "aylor": 7167,
    "ĠEmb": 13302,
    "ĠStretch": 44489,
    "ĠCho": 10031,
    "boxes": 29305,
    "added": 29373,
    "Ġthirds": 41188,
    "Paper": 42950,
    "Ġlear": 22454,
    "Ġchampion": 8783,
    "rate": 4873,
    "ĠBritish": 3517,
    "ĠPL": 9297,
    "ĠJO": 32357,
    "ĠMist": 15078,
    "Ġray": 26842,
    "Ġadministr": 6863,
    "xml": 19875,
    "Ġformulations": 49971,
    "Ġrook": 10929,
    "appropri": 11488,
    "Ġresidency": 27308,
    "ĠHAM": 48079,
    "ĠItemLevel": 34448,
    "ĠGiovanni": 50191,
    "Ġanalyst": 12499,
    "Ġveto": 18860,
    "ĠDreams": 21527,
    "ultane": 9560,
    "ĠNeeds": 36557,
    "Ġmetab": 10523,
    "ĠABC": 9738,
    "Ġfloods": 27283,
    "Ġperception": 11202,
    "Ġpattern": 3912,
    "Ġtweak": 25393,
    "ĠCommands": 49505,
    "Ġrepent": 28787,
    "Ġgraduation": 21571,
    "ĠJesus": 5803,
    "zee": 42871,
    "Ġwindows": 9168,
    "ĠConscious": 45595,
    "ĠSLI": 44538,
    "Ġfugitive": 43799,
    "hardt": 28375,
    "Ġannouncer": 49032,
    "697": 40035,
    "ceed": 2707,
    "certain": 39239,
    "Ġteaches": 17324,
    "Ġcorrectional": 49187,
    "icky": 17479,
    "Ġneighbours": 23788,
    "Ġbites": 26081,
    "ĠMuse": 32887,
    "snap": 45380,
    "425": 32114,
    "Ġpaced": 44756,
    "ĠScala": 38334,
    "ĠHaste": 47708,
    "ensable": 33447,
    "ancing": 5077,
    "Ġdiscretionary": 41314,
    "ĠBrook": 7590,
    "720": 23906,
    "Ġblatantly": 39340,
    "Ġsideline": 31585,
    "Ġvaccinated": 37663,
    "ĠLuck": 14546,
    "Ġcontest": 8414,
    "ĠCyprus": 27885,
    "=#": 46249,
    "338": 28460,
    "Ġopposed": 6886,
    "Ġacted": 13134,
    "Ġcatcher": 32408,
    "Ġobjectives": 15221,
    "pt": 457,
    "anova": 40993,
    "Ġ1300": 36058,
    "ĠOrganisation": 30801,
    "Ġho": 8169,
    "ĠPhilos": 18880,
    "Ġspeculate": 26256,
    "ĠRick": 8759,
    "ĠApex": 49440,
    "rawdownloadcloneembedreportprint": 30906,
    "ĠParsons": 35925,
    "ĠHearth": 31069,
    "ĠApart": 22596,
    "Ġmonet": 32153,
    "Ġvas": 34439,
    "agonal": 27923,
    "Ġliterally": 7360,
    "delay": 40850,
    "avez": 28851,
    "Ġnominal": 26934,
    "mini": 45313,
    "usky": 42431,
    "Ġextent": 6287,
    "ĠKorean": 6983,
    "Ġ1973": 15674,
    "ĠThese": 2312,
    "Ġextermination": 48495,
    "urst": 24962,
    "ĠTrey": 36085,
    "Ġ2011": 2813,
    "ĠLegislation": 30270,
    "ĠAdrian": 21462,
    "ĠHosp": 39946,
    "Ġnarrowly": 26167,
    "Ġdoping": 42631,
    "Ġproport": 7601,
    "ĠKand": 50224,
    "Ġkeyboard": 10586,
    "ĠKahn": 42264,
    "Ġmindless": 46560,
    "ĠHitch": 36456,
    "opers": 20618,
    "Ġowning": 23107,
    "ĠSonia": 20733,
    "Ġbeing": 852,
    "Ġacquies": 47752,
    "Ġprob": 1861,
    "ĠGrip": 40298,
    "wu": 43812,
    "ĠThurs": 48971,
    "Ġuniverses": 44751,
    "Required": 37374,
    "ĠCambridge": 14457,
    "ĠFRE": 44253,
    "Ġshale": 30498,
    "FREE": 39274,
    "Ġransom": 26424,
    "ĠSched": 27774,
    "Ġairs": 37112,
    "ĠSecond": 5498,
    "Ġshel": 7497,
    "Ġderail": 33749,
    "azaar": 34485,
    "Ġaffairs": 9674,
    "ĠEarth": 3668,
    "Ġatro": 38324,
    "ĠNaomi": 40474,
    "Ġincreasingly": 6481,
    "ĠBrookings": 44924,
    "iegel": 28210,
    "duty": 26278,
    "wrong": 36460,
    "552": 40427,
    "ĠIceland": 17333,
    "Ġ425": 36959,
    "145": 18781,
    "Ġviolent": 6590,
    "Ġexcept": 2845,
    "Ġlasted": 15436,
    "Maps": 47010,
    "ĠLow": 7754,
    "Ġindependents": 35576,
    "Ġdecom": 26969,
    "ĠStarr": 37884,
    "ĠWest": 2688,
    "wan": 8149,
    "193": 24943,
    "Ġjuveniles": 48660,
    "Ġdatabases": 20083,
    "Ġcharming": 23332,
    "ĠVa": 17668,
    "))))": 35514,
    "Fun": 24629,
    "qs": 48382,
    "ĠHector": 42621,
    "qua": 39566,
    "ĠSylvia": 45425,
    "ĠChristian": 4302,
    "ĠUbuntu": 14949,
    "Ġ1989": 11104,
    "itability": 34147,
    "Ġlivelihood": 30489,
    "ĠKingdom": 7526,
    "Slot": 38963,
    "INGS": 20754,
    "Ġposs": 1184,
    "ĠPolk": 49292,
    "ëĭ": 46695,
    "Ġfirefighter": 43105,
    "ĠLatvia": 35794,
    "ĠWas": 8920,
    "talking": 48186,
    "cohol": 4857,
    "ĠSyrian": 6318,
    "ĠMam": 29926,
    "Ġlevied": 43383,
    "together": 45525,
    "Ġfuss": 34297,
    "Ġdrawings": 23388,
    "isations": 38189,
    "Ġcontact": 2800,
    "Ġcruc": 27020,
    "Ġmassacres": 50010,
    "District": 44857,
    "Ġexplodes": 38711,
    "Ġperched": 49264,
    "key": 2539,
    "Ġogre": 47656,
    "Â®": 7461,
    "ĠPostal": 32881,
    "Ġassessments": 21837,
    "uld": 32926,
    "Ġwarmer": 23254,
    "ĠSET": 25823,
    "Ġmosque": 18575,
    "Ġcostly": 16378,
    "ĺħ": 11805,
    "ĠJes": 4804,
    "Ġapartments": 19592,
    "ĠFunctions": 40480,
    "ĠLu": 6026,
    "ĠPetty": 41505,
    "Ġchains": 14659,
    "ĠJewish": 5582,
    "Ġdragging": 25046,
    "ĠWTC": 38821,
    "cult": 40820,
    "South": 14942,
    "Ġunleash": 33502,
    "ĠCaldwell": 37387,
    "Ġpartnership": 10413,
    "igi": 25754,
    "ĠExternal": 34579,
    "ĠSauce": 37618,
    "ĠHA": 14558,
    "club": 18664,
    "agascar": 44309,
    "ĠBrav": 32780,
    "rog": 3828,
    "ĠMn": 36030,
    "auri": 35190,
    "Ġfan": 4336,
    "Ġsuitable": 11080,
    "pse": 7752,
    "Ġvary": 7565,
    "370": 20167,
    "illed": 2967,
    "ĠDynamic": 26977,
    "Ġrelegated": 36391,
    "ras": 8847,
    "Ġinsurgency": 35121,
    "Ġrou": 13805,
    "heavy": 23701,
    "ced": 771,
    "ĠGohan": 45281,
    "ĠPap": 14185,
    "Ġfate": 10030,
    "rr": 21062,
    "Ġintensified": 32413,
    "ĠTHE": 3336,
    "Ġphys": 2281,
    "ĠrÃ©": 40560,
    "ablo": 18817,
    "ĠAuburn": 24579,
    "ĠAlt": 12344,
    "stock": 13578,
    "Ġmodel": 2746,
    "when": 12518,
    "Ġacqu": 4078,
    "ĠHammer": 18278,
    "Ġedit": 4370,
    "Ġlateral": 25653,
    "ĠBrigade": 26012,
    "Ġgrease": 35537,
    "Ġcast": 3350,
    "ĠAntioch": 46590,
    "ĠLimit": 27272,
    "750": 15426,
    "ATING": 33881,
    "Ġwarrant": 8084,
    "Ġsad": 6507,
    "eligible": 31595,
    "requency": 28707,
    "Ġorb": 15769,
    "hya": 48812,
    "Ġnearly": 3016,
    "ĠComputing": 38589,
    "ĠLouise": 31774,
    "ĠKimber": 36015,
    "ĠJam": 9986,
    "arthed": 36370,
    "Ġgripped": 42046,
    "Ġnude": 26349,
    "fif": 32041,
    "thening": 20563,
    "Ġprofessions": 34423,
    "Ġbud": 3600,
    "ĠKant": 29576,
    "avoid": 27080,
    "not": 1662,
    "!--": 28112,
    "vere": 4119,
    "relevant": 49659,
    "Ġtallest": 38760,
    "ĠHall": 4789,
    "Ġwonder": 4240,
    "Ġempowerment": 39309,
    "ĠMac": 4100,
    "ĠBuzzFeed": 26321,
    "ĠSponge": 42681,
    "Ġguts": 31875,
    "Ġtransaction": 8611,
    "Ġbargain": 22803,
    "Ġchap": 28022,
    "Ġdehydration": 47751,
    "Chan": 48407,
    "ĠRebirth": 35538,
    "Ġkeeping": 5291,
    "CI": 25690,
    "Ġruns": 4539,
    "Ġproduct": 1720,
    "ĠSha": 19413,
    "Ġph": 872,
    "Session": 36044,
    "Ġclaimant": 50018,
    "Ġrabbi": 47326,
    "Ġpuzz": 15575,
    "Ġadorable": 29012,
    "ĠOng": 48041,
    "Ġtactile": 48896,
    "ander": 4066,
    "utical": 14224,
    "wine": 39002,
    "ĠMonteneg": 50008,
    "ĠPrep": 19141,
    "Solar": 38825,
    "Ġunintended": 30261,
    "Ġmassage": 26900,
    "zan": 15201,
    "755": 38172,
    "Ġjournalistic": 35227,
    "ĠDates": 44712,
    "Ġsumm": 30114,
    "ĠCamp": 5425,
    "Ġdemographics": 30084,
    "ĠTavern": 32693,
    "ĠDu": 10343,
    "Ġclosure": 16512,
    "ĠBallard": 45415,
    "Ġdramas": 43972,
    "ĠAer": 15781,
    "Ġcorrelates": 42567,
    "Ġtracker": 30013,
    "ĠExport": 36472,
    "Ġgirlfriend": 11077,
    "ny": 3281,
    "bro": 7957,
    "Ms": 10128,
    "ĠTribune": 17588,
    "||": 15886,
    "Ġminimize": 17775,
    "Ġbetrayed": 26281,
    "Ġlewd": 45179,
    "Say": 25515,
    "untarily": 49605,
    "Ġsinger": 14015,
    "Ġcynicism": 49509,
    "ĠCorp": 11421,
    "ĠAndreas": 33728,
    "ovies": 20526,
    "ua": 6413,
    "Ġeats": 25365,
    "Ġdefends": 33446,
    "Ġmoistur": 41189,
    "Ġdecks": 13136,
    "gaard": 36232,
    "ĠCreated": 15622,
    "flush": 25925,
    "ili": 2403,
    "Ġlabor": 4827,
    "ĠNYU": 48166,
    "idden": 4651,
    "Until": 18273,
    "RAG": 33202,
    "Ġcolleagues": 7810,
    "ĠSCP": 17527,
    "429": 11785,
    "ĠEvans": 13922,
    "urned": 44866,
    "riad": 21244,
    "ĠBL": 9878,
    "ĠRae": 41155,
    "haw": 26615,
    "Ġbelt": 10999,
    "Ġexempt": 13068,
    "Ġclamp": 29405,
    "quet": 21108,
    "affles": 48501,
    "ension": 3004,
    "Ġally": 12525,
    "Ġbogus": 33418,
    "Ġbooklet": 42702,
    "gregation": 17097,
    ").[": 42669,
    "acid": 46309,
    "X": 55,
    "ĠDism": 44955,
    "itism": 18937,
    "ulation": 1741,
    "Ġfunction": 2163,
    "Ġgrown": 7334,
    "Ġbonds": 13100,
    "Ġmetaphor": 23094,
    "Ġfranch": 7693,
    "sent": 34086,
    "ĠJenner": 39760,
    "ĠNations": 7973,
    "icient": 11373,
    "558": 40486,
    "{\\": 31478,
    "ĠNguyen": 42379,
    "ĠMY": 17615,
    "Ġcaffe": 21121,
    "Ġnet": 2010,
    "Battery": 47006,
    "ĠCapcom": 35936,
    "Ġneighbors": 12020,
    "Ġmeasuring": 15964,
    "ĠApr": 2758,
    "Ġexerted": 48322,
    "Ġactual": 4036,
    "Ġbeetles": 46716,
    "igor": 36274,
    "aeda": 11641,
    "Ġdeferred": 28651,
    "ĠEnvironment": 9344,
    "Ġclaimed": 4752,
    "ĠSoldiers": 28179,
    "Ġparachute": 41015,
    "ĠNebraska": 18329,
    "Ġinvasion": 11796,
    "ĠStatistical": 34931,
    "orthodox": 42539,
    "assing": 19696,
    "progress": 33723,
    "Ġru": 7422,
    "Ġbot": 10214,
    "Ġdripping": 37472,
    "Ġmi": 21504,
    "Ġletter": 3850,
    "Ġdiscrepancy": 34466,
    "Ġmalicious": 17412,
    "Ear": 8419,
    "iona": 32792,
    "Ġtouted": 28275,
    "identally": 23961,
    "Ġ1913": 35145,
    "ãĥ«": 9202,
    "ĠDeaths": 37044,
    "Ġindis": 49919,
    "ĠSally": 25737,
    "Ġpreparations": 21518,
    "Ġinevitable": 13203,
    "Ġshiny": 22441,
    "local": 12001,
    "atalie": 30951,
    "Ġventilation": 34834,
    "Ġreservation": 24048,
    "izza": 9990,
    "Ġexting": 24973,
    "Ġappear": 1656,
    "ĠAX": 43051,
    "Ġopening": 4756,
    "ĠAngela": 17799,
    "jiang": 39598,
    "ĠFalling": 42914,
    "Ġskew": 43370,
    "Today": 8888,
    "Ġvisual": 5874,
    "ĠCont": 2345,
    "orting": 24707,
    "Ġprogramme": 11383,
    "Ġmonitors": 19374,
    "Ġ702": 43379,
    "Ġconvenient": 11282,
    "ĠSky": 5274,
    "ĠNXT": 43308,
    "Ġyounger": 7099,
    "Ġfluid": 11711,
    "Ġwisely": 32773,
    "kill": 12728,
    "Ġmistakenly": 33168,
    "|": 91,
    "é£": 45617,
    "ould": 426,
    "Ġblunt": 19861,
    "sit": 48937,
    "Prosecut": 34301,
    "ĠLOL": 35513,
    "Ġwithdrew": 25518,
    "Ġhoping": 7725,
    "âĢĶâĢĶ": 4500,
    "Zip": 41729,
    "Show": 15307,
    "ĠGSL": 46326,
    "ĠBolt": 21764,
    "Ġlawyer": 6853,
    "Ġtestify": 19671,
    "Ġelders": 27495,
    "Ġplanetary": 27047,
    "å¯": 43380,
    "ĠKab": 28793,
    "ĠPeyton": 35228,
    "Ġstare": 24170,
    "Ġhate": 5465,
    "Ġsuicide": 7341,
    "Ġoptic": 43151,
    "ĠMinerva": 39367,
    "ervation": 13208,
    "363": 35447,
    "ĠW": 370,
    "aunch": 11429,
    "Ġpayoff": 43843,
    "het": 3202,
    "avy": 2830,
    "Ġridiculously": 32871,
    "Ġvir": 5709,
    "ĠIdentified": 24517,
    "const": 9979,
    "antly": 3875,
    "Ġinaug": 14243,
    "chron": 11413,
    "Ġammo": 16778,
    "Ġidiots": 35838,
    "Ġapproach": 3164,
    "Ġarrival": 10325,
    "ĠAf": 2483,
    "ĠYus": 41749,
    "Ġgra": 7933,
    "ascade": 28966,
    "thur": 11098,
    "ĠCrack": 46180,
    "mounted": 29728,
    "Ġfamilies": 4172,
    "ĠLP": 18470,
    "62": 5237,
    "ĠCanberra": 33452,
    "ĠVenezuela": 16666,
    "ĠGinny": 37877,
    "ĠCay": 28335,
    "too": 18820,
    "Ġmembership": 9931,
    "LOG": 25294,
    "Ġstairs": 16046,
    "ĠPrint": 12578,
    "regate": 49373,
    "Ġjersey": 22383,
    "Ġbeer": 6099,
    "Ġ315": 32647,
    "Ġ324": 38595,
    "Ġtheater": 13766,
    "\\\"": 7879,
    "porting": 26527,
    "Ġbicy": 12561,
    "Ġvig": 10539,
    "ĠImm": 9543,
    "Ġbeasts": 21930,
    "ansion": 5487,
    "ĠFixed": 10832,
    "Ġhomemade": 24584,
    "Ġcharg": 2609,
    "ĠSpend": 48293,
    "Ġconnectors": 34472,
    "ĠNine": 16431,
    "Ġexchanges": 14525,
    "ĠReally": 16123,
    "ĠSturgeon": 43623,
    "Ġ&&": 11405,
    "Ġgrabbing": 23256,
    "ework": 6433,
    "mercial": 15790,
    "ĠKap": 27344,
    "ĠInvestig": 16203,
    "untu": 11157,
    "Ġcomplained": 13832,
    "iyah": 46398,
    "ĠZhao": 29436,
    "Ġdeleting": 34817,
    "ĠCarol": 5074,
    "ebted": 35895,
    "Ġreasonably": 13025,
    "ĠREUTERS": 15862,
    "Ġboat": 8848,
    "Ġteenage": 16330,
    "ĠLocal": 10714,
    "Ġghosts": 25899,
    "ĠPlayoff": 41325,
    "Ġtraveling": 11300,
    "ĠPolic": 37147,
    "281": 30368,
    "Ġparams": 42287,
    "nom": 26601,
    "Ġsons": 11989,
    "Ġmansion": 24141,
    "Ġrefining": 39634,
    "Ġhous": 3821,
    "po": 7501,
    "ĠSaul": 31603,
    "ĠPagan": 46856,
    "di": 10989,
    "Ġguardian": 21688,
    "Ġsticking": 17274,
    "Ġbi": 3182,
    "bid": 14065,
    "Ġmanoeuv": 42618,
    "ĠStat": 5133,
    "Who": 8241,
    "Ġchemist": 47898,
    "Ġcu": 18912,
    "Ġparody": 29695,
    "Ġmentioning": 20862,
    "èĢħ": 38519,
    "Ġglare": 36785,
    "Ġanyone": 2687,
    "panel": 35330,
    "Ġpier": 17748,
    "NOR": 35510,
    "debian": 24689,
    "ĠLaos": 45919,
    "Ġpensions": 27581,
    ".'\"": 11496,
    "Ġutility": 10361,
    "Ġcushion": 33579,
    "ĠDefender": 25533,
    "inated": 3898,
    "Ġproductivity": 13714,
    "899": 44093,
    "Ġlongstanding": 30678,
    "Ã£o": 28749,
    "Ġholdings": 27572,
    "Ġrepealed": 32933,
    "Ġmach": 3235,
    "Ġunimagin": 37656,
    "Ġcompos": 18882,
    "jp": 34523,
    "Ġstrang": 36666,
    "form": 687,
    "ĠRachel": 15984,
    "Ġsemi": 10663,
    "ĠDeveloper": 23836,
    "Ġexploring": 13504,
    "ĠNoah": 18394,
    "Ġreopened": 37415,
    "Ġvertically": 31677,
    "Ġbun": 28773,
    "vin": 7114,
    "ention": 1463,
    "ĠVale": 31832,
    "Ġteasp": 18945,
    "Ġrepresentations": 24612,
    "VC": 15922,
    "romptu": 49255,
    "ACK": 8120,
    "emaker": 32174,
    "Ġpoet": 21810,
    "ĠLumpur": 49001,
    "ĠRobotics": 47061,
    "Ġnuclear": 4523,
    "Ġrubbed": 31862,
    "ĠVitamin": 27533,
    "ĠNug": 45777,
    "paid": 20333,
    "Ġcram": 33070,
    "ishy": 49785,
    "Ġmetaph": 13738,
    "ĠCrypto": 36579,
    "ĠBane": 38112,
    "oom": 4207,
    "azy": 12582,
    "Ġdup": 32597,
    "strip": 36311,
    "ĠLibertarian": 30226,
    "Ġalerts": 21675,
    "ĠCandle": 44973,
    "ĠConsent": 46869,
    "ĠFortune": 20425,
    "Ġvacc": 7041,
    "Ġâ": 2343,
    "Ġfishes": 49765,
    "combat": 39969,
    "Ġunborn": 36172,
    "Ġcontro": 1246,
    "Ġvengeance": 30657,
    "inia": 43168,
    "olphin": 27161,
    "Ġunequivocally": 47001,
    "ook": 566,
    "Ang": 13450,
    "Accessory": 41629,
    "RA": 3861,
    "ç¥ŀ": 15351,
    "ley": 1636,
    "ĠCrossref": 23613,
    "ĠFurther": 7735,
    "Ġsteril": 30429,
    "ĠMorgan": 10805,
    "54": 4051,
    "ĠAbedin": 39562,
    "unia": 39934,
    "ĠNur": 49281,
    "Ġslime": 34570,
    "clave": 44281,
    "Ġevolve": 18101,
    "ritic": 46015,
    "Ġbooted": 48696,
    "ĠCapacity": 29765,
    "Ġunique": 3748,
    "ĠCoC": 41055,
    "ville": 4244,
    "Ġmotives": 21508,
    "Ġfollower": 33040,
    "Resp": 19309,
    "Ġdecline": 7794,
    "Ġexample": 1672,
    "SD": 10305,
    "84": 5705,
    "atial": 34961,
    "ĠKot": 21702,
    "retion": 12307,
    "ĠFancy": 49848,
    "lio": 48590,
    "\"]": 8973,
    "ĠPresbyterian": 44150,
    "TOR": 32961,
    "ĠVancouver": 10930,
    "jon": 46286,
    "Ġpatriot": 29408,
    "Ġoffered": 4438,
    "Ġroadway": 35852,
    "Ġveiled": 45694,
    "ĠAtkins": 47545,
    "police": 38191,
    "Ġ570": 44626,
    "ISM": 31125,
    "ĠNursing": 46278,
    "USA": 14053,
    "Ġslider": 28982,
    "ushing": 8023,
    "happy": 34191,
    "Ġhallway": 23959,
    "Ġenergetic": 26758,
    "Ġlove": 1842,
    "Ġsummarized": 31880,
    "Ġresentment": 28888,
    "Ġenticing": 47460,
    "ivas": 38630,
    "ĠButler": 17389,
    "wives": 35234,
    "ĠSpoon": 48704,
    "Ġapproximate": 27665,
    "liament": 5130,
    "Ġfalling": 7463,
    "Ġcountryside": 25708,
    "ĠChristians": 9316,
    "ĠPalo": 44878,
    "ĠKurt": 20642,
    "Ġearned": 7366,
    "Ġenter": 3802,
    "Similar": 18925,
    "Mach": 49999,
    "al": 282,
    "Ġ138": 21503,
    "Vice": 47910,
    "Private": 29067,
    "Legend": 21351,
    "Ġexodus": 39524,
    "Marco": 37179,
    "Ġareas": 3006,
    "Foreign": 33616,
    "Ġglanced": 27846,
    "Ġheaders": 24697,
    "ĠTags": 44789,
    "ĠFail": 18448,
    "Ġeclipse": 25872,
    "Ġawoken": 43532,
    "ĠGotham": 30129,
    "ĠOrt": 31427,
    "Ġcreed": 43514,
    "Office": 27743,
    "Ġsubjected": 16164,
    "Ġsqueezing": 40237,
    "206": 22136,
    "ĠPCI": 17976,
    "smoking": 48783,
    "Patrick": 32718,
    "Ġwait": 4043,
    "yards": 33750,
    "Äį": 46195,
    "ĠTest": 6208,
    "Ġdirectories": 29196,
    "Ġindef": 16536,
    "Ġsensational": 31826,
    "Ġfundamentals": 33099,
    "ĠFishing": 28944,
    "ĠINTER": 23255,
    "ĠPrix": 23832,
    "ando": 25440,
    "olesterol": 16743,
    "ĠLegacy": 14843,
    "Ġpitches": 22421,
    "ĠConway": 26608,
    "atsu": 19231,
    "fx": 21373,
    "ĠResp": 10328,
    "trop": 48385,
    "ĠVoyager": 34124,
    "Ġsank": 30895,
    "Ġins": 1035,
    "Ġá": 28053,
    "mia": 20730,
    "*****": 35625,
    "Ø¯": 38843,
    "ĠWeb": 5313,
    "growth": 27922,
    "Ġkindly": 26820,
    "Ġsurprise": 5975,
    "ĠInform": 45255,
    "ĠSATA": 35070,
    "Ġprofiles": 16545,
    "ĠTatt": 36711,
    "Ġminority": 9137,
    "Peter": 19727,
    "Limit": 39184,
    "Ġundone": 45171,
    "Ġwedding": 10614,
    "ĠCtrl": 19212,
    "aspers": 49412,
    "Ġheadphones": 22537,
    "aka": 8130,
    "Ġ=====": 29335,
    "ĠInitiative": 18362,
    "Ġprofit": 7630,
    "alone": 17749,
    "Visit": 31141,
    "ĠShared": 39403,
    "orrect": 47315,
    "aque": 18251,
    "Ġdesperate": 12111,
    "hood": 2894,
    "Matthew": 25372,
    "Ġprogrammers": 24867,
    "ĠChair": 9369,
    "Ring": 39687,
    "APD": 35349,
    "Ġretrospective": 41432,
    "surv": 48846,
    "Ġbilateral": 24537,
    "Ġfascism": 31037,
    "Ġreiterated": 27116,
    "ĠProjects": 29898,
    "78": 3695,
    "Ġbleach": 49024,
    "Ġcovering": 9505,
    "Ġaggravated": 25890,
    "kk": 28747,
    "PN": 13137,
    "Ġfist": 18606,
    "ĠSac": 9295,
    "ĠMcLaren": 33017,
    "racuse": 28268,
    "Proxy": 44148,
    "appers": 46629,
    "Ġ502": 47233,
    "par": 1845,
    "ombie": 9081,
    "ĠLur": 47851,
    "Ġ1972": 16101,
    "AppData": 22322,
    "Ġbod": 16429,
    "ä¹ĭ": 45298,
    "cript": 6519,
    "orters": 3816,
    "Ġdestiny": 22701,
    "ĠPublishers": 43403,
    "Ġingen": 27016,
    "alogy": 48909,
    "ĠSkull": 24360,
    "ĠEy": 21566,
    "Ġpiss": 18314,
    "ĠGaia": 37471,
    "upe": 48722,
    "ĠServer": 9652,
    "pass": 6603,
    "oji": 31370,
    "constitutional": 18789,
    "Ġloaf": 40134,
    "Ġdebts": 20250,
    "ĠBUT": 21728,
    "ĠBach": 25332,
    "Ġgenerates": 18616,
    "ĠCLASS": 42715,
    "Max": 11518,
    "ĠBrewers": 35295,
    "rano": 35823,
    "ĠLoad": 8778,
    "Fresh": 35857,
    "aunts": 43981,
    "Ġdisgust": 16234,
    "ailing": 11608,
    "ĠCaucasian": 43172,
    "Ġsac": 5360,
    "Ġ)]": 48600,
    "Ġ182": 28581,
    "icial": 6652,
    "Ġlumin": 29763,
    "ĠExtensions": 49751,
    "Ġastonished": 40962,
    "Ġbiomark": 49951,
    "ĠExpression": 41986,
    "Ġpundits": 30855,
    "517": 48170,
    "Ġrenew": 6931,
    "Ġchances": 8395,
    "mbudsman": 47012,
    "ĠGym": 31187,
    "Fif": 44403,
    "Ġsubmission": 14498,
    "Ġvideo": 2008,
    "ĠNEVER": 33602,
    "Ġperformances": 13289,
    "ĠOption": 16018,
    "Ġmediocre": 29956,
    "Ġslip": 13819,
    "ĠZur": 35821,
    "Ġdefaults": 26235,
    "Ġiteration": 24415,
    "ĠSilver": 7698,
    "uana": 5020,
    "portation": 10189,
    "Ġsteps": 4831,
    "ĠOwn": 11744,
    "code": 8189,
    "Ġtr": 491,
    "ĠVentura": 43204,
    "Ġoriginal": 2656,
    "arsh": 5406,
    "Ġdesks": 44301,
    "ĠRush": 13063,
    "Ġstream": 4269,
    "Ġwhereas": 9472,
    "Ġallies": 7681,
    "Ġupstairs": 26148,
    "Ġtooltip": 49472,
    "Ġseemingly": 9775,
    "chem": 15245,
    "Ġdelegates": 15265,
    "??": 3548,
    "Ġmechanical": 12370,
    "ĠAvengers": 19845,
    "broad": 36654,
    "ĠAfghan": 6539,
    "ĠSpir": 25958,
    "egg": 33856,
    "ĠChev": 25233,
    "ĠBlazers": 34766,
    "ĠOffense": 43824,
    "ĠCollider": 50253,
    "Ġspectrum": 10958,
    "ĠReleased": 28728,
    "GROUND": 46025,
    "cia": 33743,
    "Ġprett": 46442,
    "Ġrigged": 31043,
    "ĠWall": 5007,
    "Ġcylinders": 43386,
    "Ġbrutally": 30040,
    "business": 22680,
    "____": 1427,
    "etc": 14784,
    "THE": 10970,
    "Ġstring": 4731,
    "Ġgradual": 24972,
    "MER": 29296,
    "ĠProc": 31345,
    "Ġstupid": 8531,
    "ĠSheldon": 34536,
    "Ġmissile": 10105,
    "Ġflyer": 42464,
    "ĠPe": 2631,
    "ĠNight": 5265,
    "ĠRandall": 29799,
    "Coun": 31053,
    "ĠSynt": 26375,
    "Dean": 36372,
    "ĠTerms": 17637,
    "Ġblasting": 36998,
    "ĠWalters": 43287,
    "Ġimagined": 15758,
    "ĠPutin": 8144,
    "Ġtoxins": 31930,
    "ĠND": 25524,
    "IT": 2043,
    "ĠAp": 5949,
    "Lou": 24016,
    "ĠPLA": 45838,
    "Ġpronoun": 28636,
    "Burn": 29053,
    "Ġpersonnel": 8213,
    "Ġportals": 42604,
    "ĠHastings": 38330,
    "Ross": 38328,
    "Ġlistened": 16399,
    "Ġliberation": 22256,
    "Ġssh": 26678,
    "Ġjan": 42897,
    "lette": 21348,
    "Ġshorts": 22078,
    "ĠPakistani": 17807,
    "English": 15823,
    "JR": 44817,
    "ĠSaga": 19743,
    "Ġhospitality": 33362,
    "Ġrequires": 4433,
    "_______": 37405,
    "Ġunfortunately": 12716,
    "osi": 21707,
    "Ġpeacefully": 30996,
    "Ġrituals": 25797,
    "ĠEt": 17906,
    "Ġlayoffs": 41965,
    "quality": 13237,
    "ĠAce": 17102,
    "Pot": 25396,
    "ĠSparkle": 41614,
    "sectional": 44330,
    "Ġmetabolism": 20211,
    "ĠãĤµãĥ¼ãĥĨãĤ£": 45544,
    "UNE": 41884,
    "aring": 1723,
    "Ġlocks": 19253,
    "Ġstripping": 37727,
    "wrap": 37150,
    "Ġbrothers": 9397,
    "ĠShape": 25959,
    "ĠScarlet": 26620,
    "Ġsquee": 13170,
    "iggle": 24082,
    "ĠNav": 13244,
    "design": 26124,
    "Ġshorten": 45381,
    "ĠZamb": 44418,
    "Ġvaping": 42106,
    "amy": 14814,
    "022": 44087,
    "wage": 21482,
    "MG": 20474,
    "ispers": 27148,
    "rem": 2787,
    "ORS": 20673,
    "Ġwidely": 6768,
    "ĠClarke": 19635,
    "Discover": 44596,
    "ĠChavez": 31039,
    "OWER": 36048,
    "meat": 41495,
    "Ġcreative": 7325,
    "oche": 30848,
    "cele": 49840,
    "Ġtogether": 1978,
    "Ġskeletons": 25612,
    "Ġambitions": 22455,
    "ĠSkin": 17847,
    "ĠWow": 24755,
    "Ġsegregated": 38135,
    "Ġconsciously": 30410,
    "758": 38569,
    "Gallery": 29352,
    "Ġnotebooks": 43935,
    "ĠArcane": 26475,
    "ensitivity": 40545,
    "Ġformulated": 34391,
    "ĠTitanium": 49635,
    "ĠREC": 19644,
    "Ġassistants": 29488,
    "ĠChanges": 19179,
    "Ġplus": 5556,
    "ĠIdle": 37130,
    "Ġartifact": 24127,
    "ĠUnsure": 38481,
    "Ġ03": 7643,
    "Ġdictates": 35054,
    "edom": 3836,
    "------------------------": 22369,
    "Ġlots": 6041,
    "Ġmodels": 4981,
    "Ġoverhaul": 18708,
    "ĠEp": 4551,
    "lando": 11993,
    "ĠManual": 17969,
    "ĠFavorite": 33992,
    "ĠSean": 11465,
    "Ġmourning": 33404,
    "Ġpolled": 37698,
    "ĠPike": 29539,
    "Ġinward": 29879,
    "since": 20777,
    "incible": 33494,
    "ĠInteractive": 21365,
    "Ġhypocr": 25258,
    "Ġtroops": 6553,
    "Ġpadd": 14098,
    "Ġslumped": 48560,
    "ĠJackson": 6612,
    "Ġoriginating": 37962,
    "ĠMuller": 47508,
    "urn": 700,
    "ĠSport": 12771,
    "Ġorientation": 12852,
    "Game": 8777,
    "Ġaffidav": 21637,
    "ĠLike": 4525,
    "Ġlapt": 10882,
    "Ca": 24334,
    "Ġinteractions": 12213,
    "Ly": 31633,
    "Ġdistinction": 12941,
    "So": 2396,
    "ĠBrilliant": 45891,
    "ĠAub": 19723,
    "Dog": 32942,
    "ifying": 4035,
    "75": 2425,
    "600": 8054,
    "Ġfixed": 5969,
    "Sources": 21188,
    "Ġjewel": 16927,
    "Ġdrilling": 19747,
    "ĠRemy": 32912,
    "ĠInterface": 26491,
    "Ġ127": 18112,
    "Ġunsur": 31035,
    "Ġcirculation": 19133,
    "Ġot": 30972,
    "input": 15414,
    "Comp": 7293,
    "ĠMLA": 43265,
    "Ġomega": 37615,
    "ederation": 9748,
    "ĠBurn": 8942,
    "ĠEpic": 16781,
    "\"},\"": 13018,
    "Ġdebunked": 46682,
    "Ġconsumer": 7172,
    "ĠTh": 536,
    "128": 12762,
    "Ġtechnologically": 48299,
    "ĠSoftware": 10442,
    "esh": 5069,
    "ĠStab": 49726,
    "Ġmisconceptions": 45679,
    "ĠDance": 17349,
    "Ġdistraction": 24066,
    "Never": 12295,
    "Ġregul": 3475,
    "ĠSom": 9995,
    "Ġadvised": 13030,
    "Ġmetrics": 20731,
    "apore": 11656,
    "generated": 27568,
    "Ġevid": 25568,
    "Farm": 48412,
    "Ġabstraction": 34651,
    "Ġcolonies": 20848,
    "Ġpersecution": 22839,
    "Ġpivot": 30355,
    "Ġburg": 15601,
    "Ġmedd": 26551,
    "ĠSwordsman": 48318,
    "Ġcomplementary": 32150,
    "ĠAnth": 8451,
    "ĠLiv": 32020,
    "Ġlaps": 24590,
    "proxy": 36436,
    "Ġpermitted": 10431,
    "Ġtransparent": 13245,
    "daily": 29468,
    "Ġamount": 2033,
    "===": 18604,
    "Ġpsychosis": 37926,
    "Ġphotons": 44378,
    "ĠBott": 14835,
    "ĠElder": 15624,
    "Ġprison": 3770,
    "ĠBritons": 43310,
    "Ġdiligent": 47334,
    "ĠSz": 27974,
    "Ġdissolution": 37494,
    "Pir": 46772,
    "ĠOperating": 24850,
    "ews": 15515,
    "Ġsewing": 35356,
    "OTH": 26946,
    "points": 13033,
    "ĠDomin": 11817,
    "ĠTelesc": 34495,
    "ulty": 10672,
    "ĠVick": 33347,
    "Ġgrandparents": 28571,
    "tar": 18870,
    "Ġidiosyncr": 49875,
    "Ġlast": 938,
    "366": 32459,
    "Connor": 27136,
    "Ġobey": 22389,
    "ĠLuc": 7598,
    "Ġintu": 14605,
    "ĠIB": 34782,
    "Ġemulation": 47065,
    "ĠGamble": 49318,
    "Ġethics": 14458,
    "Ġtextile": 45293,
    "antasy": 34921,
    "ãĥĺ": 23363,
    "idia": 38513,
    "Ġspar": 37331,
    "ĠHayward": 41960,
    "ĠRalph": 20993,
    "Ġoverlook": 15677,
    "Ġtariffs": 29240,
    "St": 1273,
    "Result": 23004,
    "missible": 21597,
    "tri": 28461,
    "amer": 2382,
    "ĠOlder": 35527,
    "Ġsatellites": 20372,
    "ĠRus": 9223,
    "Ġsnapshots": 47787,
    "Org": 46808,
    "ô": 176,
    "Left": 18819,
    "Ġlender": 35747,
    "Ġprint": 3601,
    "ger": 1362,
    "Ġhemorrh": 42203,
    "Ġkale": 43497,
    "Dr": 6187,
    "lymp": 6760,
    "Ġbreadth": 32483,
    "Ġfailures": 15536,
    "ĠNuclear": 19229,
    "Ġhi": 23105,
    "Ġbartender": 41118,
    "Ġgenome": 19270,
    "¡": 94,
    "KS": 27015,
    "Ġchrom": 15358,
    "ibilities": 7992,
    "fal": 42932,
    "closure": 17966,
    "ĠRGB": 25228,
    "ĠCong": 2908,
    "Ġwanting": 10291,
    "})": 30072,
    "ĠIps": 47177,
    "Rob": 14350,
    "branded": 35559,
    "GY": 31212,
    "Ġcollaborated": 38261,
    "Ø¨": 39848,
    "atch": 963,
    "continue": 43043,
    "Ġproclamation": 39862,
    "Ġsandbox": 35204,
    "Anth": 30327,
    "umni": 25402,
    "Ġformulate": 46418,
    "ĠMachines": 31182,
    "Ġmix": 5022,
    "seconds": 43012,
    "established": 27718,
    "ĠHeart": 8894,
    "ĠLO": 17579,
    "StreamerBot": 37574,
    "Ġrepaired": 27457,
    "ohm": 34028,
    "ĠRelease": 13868,
    "ĠForget": 29624,
    "504": 33580,
    "Ġ7": 767,
    "Ġbullying": 20714,
    "Ġcomposite": 24185,
    "ĠSagan": 49381,
    "Ġscrutin": 30441,
    "Ġrestructuring": 32324,
    "Ġbarb": 42577,
    "zona": 7551,
    "ourage": 32885,
    "actor": 11218,
    "Ġkilometres": 23990,
    "ĠFract": 40548,
    "ĠPapa": 42328,
    "Jewish": 28240,
    "Look": 8567,
    "ĠBears": 15682,
    "ustomed": 22646,
    "537": 46096,
    "Ġsenior": 4664,
    "DN": 35504,
    "Ġvicinity": 25980,
    "ĠEr": 5256,
    "ĠMattis": 36107,
    "Ġcircus": 33125,
    "ĠMissile": 25350,
    "Ġinstalls": 42027,
    "Ġreset": 13259,
    "Ġkeeps": 7622,
    "ecake": 46557,
    "rients": 18491,
    "ĠRee": 29030,
    "rought": 2909,
    "uffy": 15352,
    "ĠGordon": 11646,
    "ĠLodge": 27046,
    "ĠBeck": 11739,
    "Ġagricultural": 14240,
    "ĠOt": 19740,
    "ĠHERE": 15698,
    "Ġmaximizing": 48350,
    "Ġsometime": 17291,
    "alpha": 26591,
    "%": 4,
    "ĠNess": 41606,
    "!!!!!!!!": 34635,
    "gif": 27908,
    "iflower": 42642,
    "ĠÂ¥": 38221,
    "Ġwo": 24486,
    "Ġeducated": 15657,
    "Ġaccepted": 6292,
    "ĠIts": 6363,
    "Ġrhetorical": 38505,
    "Club": 42350,
    "Ġfmt": 46996,
    "lear": 3238,
    "Ġhorizontally": 36774,
    "ĠPole": 29385,
    "adapt": 42552,
    "Ġperiod": 2278,
    "ĠTraff": 31203,
    "Ġcreat": 1827,
    "ĠTransportation": 15198,
    "ĠTul": 30941,
    "Ġpious": 45979,
    "Talk": 25685,
    "ĠBennett": 17468,
    "Ġpharmacies": 49661,
    "Ġwellbeing": 40013,
    "Ġfunk": 46212,
    "ĠHarlem": 39735,
    "antis": 20836,
    "Ġfinal": 2457,
    "qq": 38227,
    "Ġeducation": 3707,
    "Ā": 188,
    "ĠPicard": 36614,
    "distance": 30246,
    "Ġrespondents": 14502,
    "ĠYan": 10642,
    "Ġgreeted": 21272,
    "ĠCipher": 44334,
    "Sym": 43094,
    "Ġtodd": 23646,
    "ilities": 2410,
    "Ġtwent": 21849,
    "Ġpunt": 35363,
    "Ġ262": 35404,
    "ĠBrune": 46070,
    "ruck": 30915,
    "ĠSpecial": 6093,
    "Ġcost": 1575,
    "Ġfruitful": 44474,
    "ĠPython": 11361,
    "Ġdelivery": 7585,
    "Ġremains": 3793,
    "Ġsociety": 3592,
    "ĠRevelation": 33722,
    "Gl": 9861,
    "Ġbroadcast": 7025,
    "ĠMOV": 28184,
    "Ġrats": 13623,
    "Ġassignment": 16237,
    "ixties": 46550,
    "\":": 1298,
    "assies": 46257,
    "Scot": 37559,
    "Ġscoop": 23529,
    "hesda": 30049,
    "Ġbliss": 30533,
    "ĠTesla": 11938,
    "Ġthereto": 44597,
    "ĠSch": 3059,
    "Ġfaintly": 49057,
    "Otherwise": 48059,
    "Ġencomp": 20504,
    "Ġcelebrities": 21305,
    "Moon": 31640,
    "ĠFestival": 11117,
    "Ġfilmmakers": 28303,
    "riber": 24735,
    "ĠFrequency": 31902,
    "ĠUpdate": 10133,
    "ĠThames": 42521,
    "ãĥ³ãĤ¸": 45823,
    "Ġsocks": 24359,
    "Ġbookmark": 44007,
    "Standard": 23615,
    "endiary": 43034,
    "ĠPlat": 32715,
    "Ġinequ": 11082,
    "ĠPanasonic": 46049,
    "aph": 6570,
    "Ġcalculate": 15284,
    "vis": 4703,
    "ĠRichardson": 21679,
    "ĠMercedes": 21279,
    "ĠAmsterdam": 24377,
    "ĠIncreasing": 38921,
    "Ġinfections": 16079,
    "ĠNorwich": 43586,
    "ĠCorpse": 45311,
    "ĠLunar": 31947,
    "Ġheadaches": 29432,
    "Ġcondos": 48093,
    "EEEE": 35039,
    "Ġhungry": 14720,
    "Brother": 39461,
    "Ġvolunt": 11631,
    "ĠLara": 29849,
    "Ġbees": 17002,
    "Ġzoom": 19792,
    "Ġbillboards": 46696,
    "Ġsupplementation": 30306,
    "Ġdiscipl": 8311,
    "Mos": 32668,
    "inburgh": 22222,
    "collect": 33327,
    "Hur": 42633,
    "ĠEl": 2574,
    "ĠHouse": 2097,
    "ĠHours": 19347,
    "ipers": 29288,
    "Ġreferees": 42692,
    "Ġsurviving": 16997,
    "Ġ188": 27778,
    "ĠMon": 2892,
    "Ġmanipulate": 18510,
    "Ġwithholding": 34180,
    "Ġpsychedel": 27477,
    "Ġvac": 6658,
    "Ġopenness": 30913,
    "ir": 343,
    "orns": 19942,
    "tk": 30488,
    "ĠSingapore": 12551,
    "ĠDenise": 43596,
    "Ġmushrooms": 23452,
    "Ġsupplemental": 34885,
    "enough": 48229,
    "Ġcollections": 17268,
    "452": 37730,
    "115": 15363,
    "Ġreduction": 7741,
    "ĠFarn": 49230,
    "Ġdrinkers": 40527,
    "orbit": 42594,
    "Ġhas": 468,
    "Ġissuance": 30145,
    "%\"": 39658,
    "ĠWebsite": 15887,
    "ĠSkip": 32214,
    "azon": 5168,
    "Ġfracture": 31846,
    "ĠMetallic": 38037,
    "oldown": 15041,
    "ĠLat": 5476,
    "EG": 7156,
    "Ġexhib": 7316,
    "ees": 2841,
    "atus": 7240,
    "Ġcompare": 8996,
    "weights": 43775,
    "ĠWireless": 24365,
    "Ġunf": 3684,
    "ials": 8231,
    "ernand": 13023,
    "Ġdissertation": 46793,
    "Ġreflect": 4079,
    "Ġallergies": 36665,
    "Emily": 48640,
    "ĠWind": 3086,
    "\"?": 13984,
    "Ġironic": 25304,
    "ĠMyster": 12099,
    "Ġinvade": 30419,
    "COLOR": 46786,
    "Ġppm": 39719,
    "ĠâĿ": 43074,
    "Ġgrat": 14586,
    "Ġangry": 7954,
    "ĠHoney": 21788,
    "Ġvib": 16081,
    "ĠBaseball": 17362,
    "ĠSpo": 49331,
    "Ġfantastic": 9623,
    "Ġthreshold": 11387,
    "Ġpastoral": 45950,
    "579": 41734,
    "Ġfanc": 39980,
    "Ġevidence": 2370,
    "arity": 6806,
    "letal": 47293,
    "Ġstrong": 1913,
    "idency": 9147,
    "Ġconfusion": 10802,
    "ĠCaller": 10244,
    "Journal": 25296,
    "ģ«": 43769,
    "Ġwithdrawing": 36395,
    "ĠWinc": 35898,
    "Ġopin": 3631,
    "ĠYao": 37826,
    "ĠTelescope": 36789,
    "Ġbroch": 41978,
    "ICE": 8476,
    "operated": 42767,
    "Ġsaving": 8914,
    "VEL": 18697,
    "Ġcert": 5051,
    "yd": 5173,
    "AH": 18429,
    "uffs": 18058,
    "ĠJapanese": 4960,
    "blown": 31290,
    "Ġmaps": 8739,
    "ĠRN": 43112,
    "ĠArchie": 43459,
    "Ġ1959": 23859,
    "ĠLiter": 17667,
    "aji": 26436,
    "Ġcursing": 49766,
    "ĠRichie": 49209,
    "Ġcelebrations": 22861,
    "ĠTroll": 28037,
    "gomery": 20142,
    "ĠAck": 36031,
    "ĠBirmingham": 18899,
    "ĠDixon": 31178,
    "ĠSec": 1882,
    "Ġinterf": 9556,
    "WB": 45607,
    "ĠLovecraft": 37655,
    "acies": 13433,
    "Graham": 45821,
    "Egypt": 39299,
    "Ġcomplexes": 42665,
    "ĠChronicle": 14160,
    "ĠChaff": 46279,
    "Ġgastrointestinal": 40887,
    "airy": 13021,
    "Ġpiv": 16767,
    "257": 28676,
    "culation": 14902,
    "ĠDruid": 32685,
    "ĠMarines": 19586,
    "ĠArena": 10937,
    "ĠInsert": 35835,
    "Ġdefin": 2730,
    "Ġafterwards": 12979,
    "Ġgross": 10319,
    "ĠArche": 43572,
    "ĠSpeaking": 21393,
    "inse": 38521,
    "ameron": 41639,
    "Delete": 38727,
    "ĠUsed": 16718,
    "Ġvessels": 14891,
    "ĠLaden": 19402,
    "Ġheights": 23245,
    "gars": 25821,
    "Ġwary": 23300,
    "Ġcorruption": 9253,
    "Ġscience": 3783,
    "Ġuploading": 33794,
    "Ġderivatives": 28486,
    "context": 22866,
    "Ġfingers": 9353,
    "\"}": 20662,
    "ĠSov": 6917,
    "Jr": 50123,
    "Ġbroadcasters": 38716,
    "shape": 43358,
    "grim": 33563,
    "ãģ¨": 30201,
    "Ġsed": 10081,
    "ĠBuffer": 47017,
    "foot": 5898,
    "ĠSTAND": 49053,
    "ĠMons": 19853,
    "Ġsurveyed": 20840,
    "519": 47785,
    "andem": 30025,
    "cliffe": 33783,
    "Ġ978": 41417,
    "nick": 17172,
    "ĠSAN": 37376,
    "Ġsecondly": 48550,
    "Ġling": 18459,
    "ĠPorn": 29629,
    "ĠBees": 46698,
    "ifling": 38966,
    "ĠSwitch": 14645,
    "cent": 1087,
    "Ġbask": 39353,
    "ĠScotia": 32586,
    "ikers": 24913,
    "-(": 30420,
    "amate": 36754,
    "sed": 36622,
    "Ġ56": 7265,
    "Ġ121": 20416,
    "Ġkicked": 12165,
    "Ġdressing": 18544,
    "izzy": 40593,
    "Ġuniversally": 26208,
    "Likewise": 45872,
    "ĠAli": 12104,
    "Ġterr": 8812,
    "ĠBased": 13403,
    "ĠLTE": 28519,
    "ques": 13281,
    "ersen": 46516,
    "Ġdemographic": 16728,
    "Going": 27404,
    "ĠPoll": 12868,
    "Ġaccuser": 43738,
    "uta": 29822,
    "ĠEuro": 1898,
    "ĠProsecut": 26233,
    "ĠMaximum": 22246,
    "ĠLLC": 11419,
    "lake": 27180,
    "ĠUntil": 14303,
    "ified": 1431,
    "Ġ260": 21148,
    "culated": 49262,
    "ĠPaint": 23467,
    "go": 2188,
    "Ġsaf": 1932,
    "Ġpeasant": 30779,
    "ahi": 32810,
    "ĠPag": 31525,
    "ĠMong": 18428,
    "================================": 10052,
    "Ġfelt": 2936,
    "Ġunanimous": 28085,
    "Ġattributed": 14183,
    "ĠLie": 12060,
    "weather": 23563,
    "ĠMrs": 9074,
    "Ġ!=": 14512,
    "ĠTad": 50077,
    "****": 2466,
    "Ġengaging": 11932,
    "Ġdynasty": 30968,
    "ĠSomehow": 36651,
    "Ġ1936": 27653,
    "ĠBaker": 14372,
    "Ġagony": 35358,
    "ĠEmploy": 12645,
    "ĠLatinos": 33877,
    "MAX": 22921,
    "arde": 45093,
    "allo": 49457,
    "Ġseminar": 37634,
    "Ľ": 249,
    "ĠCairo": 23732,
    "Ġanim": 2355,
    "Ġdefinite": 21892,
    "Ġteammates": 13107,
    "Ġintertwined": 45905,
    "Ġsurvivor": 23446,
    "Ġwithdrawal": 15220,
    "Ġwor": 476,
    "ĠShaw": 18193,
    "Ġejected": 38632,
    "reement": 10237,
    "ĠChicago": 4842,
    "NG": 10503,
    "ĠTypical": 48752,
    "Ġportable": 17726,
    "rider": 49449,
    "ĠRelations": 13883,
    "Ġprofessor": 6240,
    "Oh": 5812,
    "Ġinternational": 3230,
    "ĠPetersburg": 27051,
    "Ġwines": 30680,
    "Ġspend": 4341,
    "ĠManafort": 26351,
    "Ġexplosive": 13835,
    "ĠIce": 6663,
    "esan": 42890,
    "Ġhunters": 21490,
    "alus": 46781,
    "guy": 22932,
    "Ġverdict": 15593,
    "Ġgasped": 45236,
    "iland": 40855,
    "ĠRegistrar": 46439,
    "Ġbike": 7161,
    "earable": 40816,
    "ASHINGTON": 19436,
    "ĠEv": 4319,
    "kw": 46265,
    "Cover": 27245,
    "Ġsuit": 6050,
    "Ġtests": 5254,
    "Ġinvestigations": 10986,
    "amia": 49442,
    "Project": 16775,
    "Ġinstant": 9113,
    "ĠParis": 6342,
    "Â¨": 37102,
    "Soul": 36315,
    "Britain": 37114,
    "Ġneighbor": 4780,
    "ĠStadium": 10499,
    "Ġconfronts": 42650,
    "elled": 11978,
    "Ġinhuman": 40190,
    "ĠNewsp": 36765,
    "Ġhikers": 47961,
    "ountain": 18635,
    "626": 45191,
    "ĠTruth": 14056,
    "Ġshin": 40465,
    "ãĤĭ": 25748,
    "ĠConstruction": 20395,
    "ĠChar": 3178,
    "Ġremake": 28763,
    "owitz": 20951,
    "edi": 13740,
    "!?": 22857,
    "Ġpatronage": 49753,
    "awa": 6909,
    "ĠMillion": 23425,
    "ĠCf": 43216,
    "Ġconstructs": 34175,
    "nor": 13099,
    "ĠCellular": 50072,
    "codes": 40148,
    "Ġfren": 22832,
    "Ġmap": 3975,
    "ĠAudi": 26686,
    "Ġsnipp": 26911,
    "Ġfloor": 4314,
    "Ġfamiliarity": 33065,
    "Ġletters": 7475,
    "liner": 24683,
    "neum": 25668,
    "ĠFres": 32732,
    "Ġdick": 19317,
    "%%%%": 36917,
    "Strike": 31584,
    "SEC": 23683,
    "Ġcombine": 12082,
    "oxicity": 44086,
    "ĠSyndicate": 42271,
    ").\"": 21387,
    "TC": 4825,
    "ĠStrikes": 37836,
    "indust": 23213,
    "23": 1954,
    "Ġcrashed": 14997,
    "Ą": 192,
    "ĠRX": 24202,
    "Ġdesp": 11267,
    "ĠFIX": 44855,
    "ĠRoyal": 8111,
    "Ġnearest": 16936,
    "Ġinterven": 14118,
    "ĠIslamists": 34434,
    "Ġhast": 19338,
    "ĠNu": 21733,
    "ultan": 30454,
    "Ġsurging": 44298,
    "ĠProgramme": 35232,
    "bos": 39565,
    "ld": 335,
    "reetings": 46648,
    "inational": 26201,
    "ĠWat": 12242,
    "ĠMarion": 32473,
    "scope": 29982,
    "Ġinexplicable": 49602,
    "Ġclenched": 47344,
    "Ġaspiring": 31483,
    "Ġvile": 34942,
    "amic": 18127,
    "Ġbottleneck": 49936,
    "Ġturn": 1210,
    "244": 25707,
    "gem": 24090,
    "è¡": 26193,
    "Ã©t": 25125,
    "ĠFEC": 44612,
    "Ult": 16301,
    "Ġbureaucracy": 25250,
    "change": 3803,
    "ĠPend": 36865,
    "Always": 30374,
    "uga": 30302,
    "Ġboyfriend": 13850,
    "ress": 601,
    "Ó": 143,
    "Ġlowest": 9016,
    "Ġservicing": 43346,
    "ailed": 6255,
    "White": 12256,
    "´": 112,
    "Ġcontains": 4909,
    "impro": 32077,
    "Ġmaker": 16009,
    "Bron": 18760,
    "oser": 13416,
    "Ġbeverages": 24173,
    "ĠBoston": 6182,
    "Normal": 26447,
    "ĠDepending": 23591,
    "Ġsink": 14595,
    "Ġtoddlers": 50142,
    "Ġfinishes": 20271,
    "ipping": 4501,
    "Ġcrisp": 23453,
    "Ġdrunk": 10785,
    "ĠFlags": 34771,
    "Alternative": 49788,
    "Ġsarc": 40638,
    "ciplinary": 29386,
    "udes": 8401,
    "map": 8899,
    "ĠMEM": 35153,
    "Court": 36699,
    "ĠHorowitz": 47591,
    "Ġhes": 10818,
    "ĠCubs": 21562,
    "ĠâĪĴ": 9746,
    "RD": 35257,
    "along": 24176,
    "Ġguards": 10942,
    "ĠHos": 30789,
    "Ġslick": 29395,
    "Ġnavigation": 16408,
    "Ġhar": 3971,
    "include": 17256,
    "Ġnow": 783,
    "ĠLegislature": 20815,
    "Ġadvertising": 8560,
    "Skin": 42455,
    "ĠDull": 45401,
    "Each": 10871,
    "ĠManitoba": 28293,
    "rient": 8289,
    "ĠMB": 10771,
    "reditary": 47333,
    "Ġbundles": 36344,
    "ĠBeetle": 47464,
    "graduate": 17680,
    "atlantic": 43342,
    "Ġreally": 1107,
    "Ġquantitative": 26610,
    "Ġtendency": 13542,
    "ooky": 29655,
    "ĠPlayers": 13094,
    "Ġlicking": 43390,
    "Refer": 46238,
    "Ġpremie": 33050,
    "Between": 25262,
    "Ġentirety": 21818,
    "ĠCthulhu": 39316,
    "Ġuptick": 46347,
    "Ġdefiant": 36219,
    "Ġfantas": 23857,
    "ĠCorona": 44574,
    "pp": 381,
    "typ": 28004,
    "Ġsquarely": 38590,
    "Custom": 15022,
    "kes": 5209,
    "Similarly": 28039,
    "Ġwre": 30154,
    "aspx": 31740,
    "bilt": 34508,
    "ĠShap": 29198,
    "Ġkm": 10571,
    "Ġstake": 10171,
    "ĠINST": 40589,
    "Ġover": 625,
    "Ġimperialism": 30988,
    "Ġxen": 27132,
    "leave": 47408,
    "ĠException": 35528,
    "Ġgard": 16985,
    "ĠHealthcare": 30289,
    "jection": 29192,
    "ĠShen": 22323,
    "Ġerg": 39035,
    "Ġhapp": 1147,
    "ĠSprite": 33132,
    "Ġdoubling": 26862,
    "mist": 37980,
    "Crunch": 49384,
    "Ġinhabit": 14527,
    "Ġunidentified": 27022,
    "Ġdisciplines": 29861,
    "Ġunrel": 23232,
    "Ġsentiment": 15598,
    "Ġevents": 2995,
    "MORE": 23346,
    "ĠNumerous": 45261,
    "Ġimprov": 37080,
    "Ġsuffers": 21046,
    "ĠIcelandic": 41959,
    "Ġmainstream": 8661,
    "ĠGes": 45371,
    "Ġ223": 30299,
    "Ġgrunt": 45836,
    "ĠRegiment": 35588,
    "atan": 39036,
    "ĠBowie": 29989,
    "Prep": 37534,
    "Ġbroadband": 18729,
    "oper": 3575,
    "ĠGeological": 34246,
    "glers": 33641,
    "Ġirresistible": 45420,
    "were": 22474,
    "Ġmas": 12422,
    "Ġcarries": 10732,
    "Ġjihadists": 31395,
    "ĠLocke": 34576,
    "Ġrife": 43273,
    "oha": 28083,
    "ĠDisney": 8519,
    "Ġanthem": 24577,
    "Ġrod": 15299,
    "ĠBaptist": 21724,
    "Ġundertake": 25340,
    "Ġsc": 629,
    "Ġnarration": 45127,
    "Ġfle": 5104,
    "Ġcancers": 25217,
    "Ġthumb": 15683,
    "racted": 20216,
    "ĠDal": 12348,
    "Ġsurg": 19797,
    "merce": 11647,
    "ification": 2649,
    "Prop": 24331,
    "ĠLucy": 22162,
    "management": 27604,
    "ĠPru": 35511,
    "Ġimported": 17392,
    "ĠAttacks": 24647,
    "acial": 18150,
    "rovers": 31257,
    "ĠTrader": 41956,
    "Ġtotaling": 37066,
    "Ġseized": 12000,
    "Ġpervasive": 29280,
    "Ġbitterly": 40608,
    "=$": 43641,
    "316": 33400,
    "41": 3901,
    "Ġhttp": 2638,
    "facing": 29532,
    "tools": 31391,
    "ĠKerry": 15981,
    "ledged": 37436,
    "window": 17497,
    "Ġbananas": 35484,
    "eros": 27498,
    "Ġ420": 28262,
    "ĠOklahoma": 10433,
    "ĠMaterials": 24310,
    "ĠStuff": 27864,
    "ielding": 30449,
    "ĠPos": 18574,
    "ocaust": 16377,
    "Ġchapters": 15754,
    "ul": 377,
    "uitive": 33740,
    "Studio": 41501,
    "Ġdamning": 36706,
    "Volume": 31715,
    "9999": 24214,
    "ĠTemplar": 41741,
    "Ġms": 13845,
    "ĠHerrera": 46508,
    "ĠIPA": 27966,
    "PUT": 30076,
    "peed": 39492,
    "ophob": 13253,
    "color": 8043,
    "Ġexceptional": 15313,
    "Cart": 43476,
    "Ġstockpile": 45360,
    "Ġinformal": 22176,
    "ured": 1522,
    "IQ": 33866,
    "Ġcumbers": 44392,
    "ĠSiege": 30207,
    "ĠDino": 39430,
    "XXXX": 24376,
    "vised": 16149,
    "Ġinver": 40631,
    "ĠRonnie": 40892,
    "ĠCamb": 21456,
    "ĠThornton": 37519,
    "Destroy": 49174,
    "arty": 25494,
    "Feel": 35114,
    "ĠStory": 8362,
    "weekly": 45291,
    "hammad": 14875,
    "ergy": 26079,
    "ĠGil": 10689,
    "Ġtomat": 23414,
    "ĠLiterally": 48414,
    "Ġvantage": 47929,
    "Ġregret": 13721,
    "ĠTory": 19037,
    "ĠHW": 44884,
    "015": 25150,
    "[[": 30109,
    "ĠCaption": 11260,
    "intestinal": 36387,
    "talk": 16620,
    "Ġrelief": 8259,
    "ĠRomanian": 34344,
    "Ġdrastically": 22188,
    "figured": 46296,
    "ĠController": 22741,
    "speech": 45862,
    "ĠSal": 4849,
    "Ġutmost": 27878,
    "IC": 2149,
    "rugged": 21901,
    "Ġaxes": 34197,
    "Bridge": 37385,
    "ĠFirefly": 40374,
    "Ġtransitions": 27188,
    "uez": 14870,
    "Ġfolk": 15504,
    "Ġelectronic": 7914,
    "Ġpins": 20567,
    "Flo": 33574,
    "eb": 1765,
    "ĠHillary": 5073,
    "Ġsubconscious": 30931,
    "Fu": 41133,
    "Ġsecretary": 7705,
    "ĠScorpion": 48821,
    "ĠRic": 15868,
    "cock": 21517,
    "Multi": 29800,
    "uphem": 45640,
    "ILS": 45484,
    "---------------": 24305,
    "nergy": 5877,
    "Ġdecap": 44736,
    "ĠMeans": 28453,
    "REM": 40726,
    "Ġsequest": 46314,
    "Ġhometown": 20994,
    "Ġporn": 8483,
    "ustainable": 24196,
    "Tenn": 43139,
    "Ġsidew": 14910,
    "Ġwishes": 12802,
    "Ġclustered": 49480,
    "Ġhung": 9174,
    "jew": 47483,
    "Ġdetrim": 22316,
    "Nich": 46489,
    "ĠMillenn": 19007,
    "Ġrecognize": 7564,
    "Before": 8421,
    "¾": 122,
    "ĠWarcraft": 26952,
    "ago": 3839,
    "ĠCredit": 10504,
    "iterator": 48727,
    "Ġjustifying": 46235,
    "Ġtranslates": 23677,
    "ĠCharter": 23006,
    "urd": 2799,
    "Ġridicule": 38364,
    "050": 28669,
    "wl": 40989,
    "Ġgn": 19967,
    "Ġ314": 34085,
    "Ġresort": 12600,
    "Ġterror": 3246,
    "Ġpot": 1787,
    "view": 1177,
    "Ġpassion": 7506,
    "Ġparticle": 18758,
    "Ġreader": 9173,
    "ppy": 14097,
    "Ġresolves": 38709,
    "586": 29796,
    "Ġrudimentary": 47381,
    "Ġneurons": 16890,
    "Ġelegance": 49198,
    "Ġsatisfied": 11378,
    "+": 10,
    "Ġexperimentation": 29315,
    "Ġultra": 14764,
    "orb": 27688,
    "Rogue": 48163,
    "Ġpeople": 661,
    "Ġtou": 2819,
    "inky": 29246,
    "Ġobscure": 18611,
    "Ġ155": 20708,
    "Ġabandonment": 38968,
    "Display": 23114,
    "Ġ2003": 5816,
    "ĠTent": 30765,
    "ĠKir": 7385,
    "Ġsupra": 28614,
    "ĠRobo": 39702,
    "Deal": 45776,
    "ĠShapiro": 34034,
    "Ġchimpanzees": 47724,
    "Ġbilling": 26297,
    "ĠJohann": 28056,
    "izabeth": 9924,
    "air": 958,
    "stein": 5714,
    "Ġcatast": 14911,
    "ĠLDS": 28377,
    "Ġindepend": 3485,
    "Ġdiagnosed": 14641,
    "adiator": 33716,
    "Ġuncon": 21254,
    "Ġimmedi": 2729,
    "lude": 38792,
    "Â¶": 26604,
    "Ġcarrot": 40562,
    "Ġsag": 45229,
    "WOR": 45359,
    "ĠManagement": 8549,
    "Ġlegends": 24901,
    "ĠMalk": 41980,
    "Ġquoting": 28411,
    "Ġswitch": 5078,
    "Ġorally": 47311,
    "Ġcoincide": 37319,
    "ĠPlaintiff": 41990,
    "ĠWander": 49367,
    "ö": 178,
    "heng": 31753,
    "hammer": 17980,
    "ĠNass": 38742,
    "Property": 21746,
    "ĠBosnia": 34292,
    "Ġloans": 10021,
    "ĠSAF": 37630,
    "line": 1370,
    "ip": 541,
    "Ġref": 1006,
    "TIME": 34694,
    "ACC": 26861,
    "Ġ<-": 24293,
    "Ġorganisms": 20296,
    "HB": 32886,
    "Ġtil": 21502,
    "classified": 31691,
    "Ġwatered": 48024,
    "Ġuptake": 35340,
    "ĠRevel": 22858,
    "Ġturned": 2900,
    "Ġtreaty": 15775,
    "Ġgratification": 47459,
    "stage": 14247,
    "warts": 26586,
    "auts": 17712,
    "ĠCorbyn": 15673,
    "young": 35465,
    "Ġvisible": 7424,
    "Ġcones": 47314,
    "cipled": 41296,
    "ĠDraw": 15315,
    "ĠSense": 24956,
    "kid": 38439,
    "Ġremark": 6919,
    "claim": 6604,
    "Ġsemif": 32948,
    "ĠSkype": 25254,
    "Laura": 43687,
    "Invalid": 44651,
    "________________________________": 10221,
    "6": 21,
    "Ġcannabin": 30716,
    "Ġguid": 10103,
    "Applic": 33583,
    "ĠOtt": 9767,
    "Ġwors": 24476,
    "ĠRouhani": 34915,
    "Ġimplants": 35223,
    "Movie": 25097,
    "Ġthree": 1115,
    "Ġcarbs": 33037,
    "fm": 38353,
    "Ġvirtue": 14675,
    "ĠMasquerade": 38038,
    "Stock": 26207,
    "Fans": 36570,
    "Ġflourished": 45671,
    "atics": 23372,
    "eree": 45316,
    "Madison": 46845,
    "Ġnegotiators": 45373,
    "Ġescalate": 38302,
    "Ġsnakes": 26042,
    "Ġ224": 26063,
    "aila": 39460,
    "Sad": 26699,
    "ĠICC": 32300,
    "Ġpunitive": 32952,
    "olver": 14375,
    "pixel": 32515,
    "Christian": 20298,
    "ĠRaven": 12552,
    "Ġmostly": 4632,
    "etermination": 29610,
    "Ã¡s": 40138,
    "ĠYs": 43740,
    "Ġlazy": 16931,
    "ombies": 12676,
    "Ġparticipant": 18399,
    "ĠSto": 22025,
    "Ġcompel": 33729,
    "ĠDod": 15990,
    "Ġhypothesis": 14078,
    "Ġdealing": 7219,
    "Ġcompassion": 15213,
    "ĠBrah": 36415,
    "Ġfe": 730,
    "Ġprogress": 4371,
    "Ġmud": 17492,
    "Esc": 47051,
    "Ġborne": 28068,
    "ĠNGOs": 32507,
    "Ġdoctrine": 13115,
    "ĠHeather": 24253,
    "ĠShawn": 25225,
    "Ġcomr": 20677,
    "Ġfrogs": 37475,
    "Ġlacks": 16523,
    "black": 13424,
    "Ġund": 3318,
    "Ġreimbursement": 37030,
    "ĠMost": 4042,
    "article": 20205,
    "itudes": 10455,
    "OAD": 41048,
    "ĠDay": 3596,
    "El": 9527,
    "âĹ": 15926,
    "ĠEsp": 20386,
    "Ġtransformed": 14434,
    "oman": 5185,
    "orship": 11094,
    "QB": 40291,
    "ĠFDA": 14672,
    "ĠMunicip": 27338,
    "ĠMarlins": 38134,
    "ĠSab": 9910,
    "ĠFINAL": 25261,
    "ĠASA": 49599,
    "Ġobscurity": 48326,
    "ports": 3742,
    "arrison": 22472,
    "Ġtrio": 19886,
    "ĠStore": 9363,
    "880": 41655,
    "ĠKerr": 32879,
    "Poor": 43920,
    "Ġstate": 1181,
    "FIR": 39776,
    "ĠSquad": 11630,
    "ĠValkyrie": 23620,
    "ippers": 16415,
    "shirt": 15600,
    "ĠForms": 39196,
    "Ġgeopolitical": 35493,
    "Ġbrewer": 47695,
    "olean": 21052,
    "Ġexclus": 10293,
    "ĠYosh": 28563,
    "onym": 5177,
    "Ġlumber": 34840,
    "Ġdecrease": 10070,
    "Ġpap": 20461,
    "Ġpros": 10360,
    "oho": 40950,
    "ãĥ´ãĤ¡": 44444,
    "Ġdispl": 7845,
    "arch": 998,
    "MD": 12740,
    "Ġexpands": 27513,
    "ĠProblem": 20647,
    "ĠGarage": 45502,
    "ĠPick": 12346,
    "Why": 5195,
    "IL": 4146,
    "Ġstylish": 30511,
    "Ġsuppliers": 20499,
    "Brow": 32635,
    "Ġnoodles": 31103,
    "ĠCam": 7298,
    "Ġtheorist": 46410,
    "ĠPortugal": 19101,
    "Ġsilenced": 38086,
    "Ġlamps": 32209,
    "ĠPremiere": 44151,
    "inch": 8589,
    "Contin": 17875,
    "Ġciv": 36317,
    "ĠCyn": 31040,
    "Ġsupplemented": 41610,
    "Ġshaping": 23610,
    "ĠGalileo": 45860,
    "Ġbegins": 6140,
    "Ġ418": 45959,
    "Ġdare": 16498,
    "outine": 28399,
    "Ġposter": 11968,
    "Ġgut": 12500,
    "Ġperished": 43181,
    "token": 30001,
    "ĠIgn": 16583,
    "ĠVar": 12372,
    "lopp": 39590,
    "Ġstarch": 39515,
    "Ġqui": 45567,
    "ĠDB": 20137,
    "ĠPennsylvania": 9589,
    "istries": 32995,
    "ĠBever": 22185,
    "Ġfray": 40606,
    "ogether": 8236,
    "ĠShan": 14866,
    "Justin": 33229,
    "Ġstandard": 3210,
    "Ġvandalism": 37260,
    "ĠConnie": 48506,
    "Function": 22203,
    "stretched": 49729,
    "ĠUr": 8799,
    "Ġgloss": 21194,
    "Ġ~/.": 39763,
    "ĠHelm": 28351,
    "p": 79,
    "Ġful": 46246,
    "CF": 22495,
    "ĠBuccaneers": 37006,
    "ĠDonald": 3759,
    "ĠNasa": 48673,
    "ĠFalls": 17930,
    "Ġsick": 6639,
    "ĠEditing": 39883,
    "Ġunpopular": 24166,
    "Ġdisag": 7969,
    "vir": 37040,
    "Ġbanking": 11754,
    "MR": 13599,
    "Ġiniti": 5383,
    "Ġcro": 6763,
    "ĠSpain": 8602,
    "Ġvomiting": 30874,
    "Ġraw": 8246,
    "Ġmisfortune": 41600,
    "Ġcompetitions": 24174,
    "ĠBellev": 46643,
    "list": 4868,
    "hement": 35347,
    "ctors": 5217,
    "Ġautop": 22320,
    "Ġ108": 15495,
    "Ġaffili": 8349,
    "MHz": 25983,
    "Ġexcellent": 6275,
    "Ġhoax": 25943,
    "note": 11295,
    "ĠHy": 6707,
    "ĠShepard": 28606,
    "ugi": 45659,
    "vict": 32433,
    "mortem": 46515,
    "Ġmeddling": 33545,
    "Ġ25": 1679,
    "Ġdoubts": 17188,
    "Ġmaize": 49235,
    "Fel": 42493,
    "Judge": 29511,
    "Ġlith": 24491,
    "ĠLup": 32244,
    "Ġsentence": 6827,
    "atcher": 34734,
    "Ġspending": 4581,
    "Ox": 38208,
    "Ġstaples": 46413,
    "ĠMinotaur": 40558,
    "Ġbells": 30987,
    "Ġve": 1569,
    "ĠSixers": 46321,
    "Ġhourly": 30160,
    "MODE": 49058,
    "ĠBald": 17048,
    "ĠPow": 14120,
    "ĠPrices": 29431,
    "Ġeverything": 2279,
    "lc": 44601,
    "ĠPhilipp": 9844,
    "moving": 31462,
    "ĠHence": 16227,
    "Ġtutor": 48680,
    "ĠTickets": 26878,
    "Ġsale": 5466,
    "++;": 47253,
    "ĠSounds": 27107,
    "Ġclosures": 32149,
    "lex": 2588,
    "ĠMin": 1855,
    "inker": 24275,
    "Mission": 37057,
    "Ġreprodu": 8186,
    "Ġsatirical": 40557,
    "song": 34050,
    "Children": 26829,
    "Ġcontents": 10154,
    "Ġessay": 14268,
    "aily": 3079,
    "ography": 4867,
    "16": 1433,
    "Ġord": 2760,
    "ĠWORLD": 29564,
    "Ġtaxable": 25069,
    "616": 44214,
    "ought": 2917,
    "ociate": 47615,
    "Transaction": 48720,
    "Keith": 46868,
    "ĠEngine": 7117,
    "ĠCompanies": 24382,
    "ĠOfficial": 15934,
    "Ġrotate": 23064,
    "violent": 24498,
    "ĠCth": 34901,
    "ĠReviews": 20871,
    "Ġori": 22812,
    "Ġfacto": 26126,
    "rus": 14932,
    "ĠBrazilian": 17036,
    "Ġplotted": 37515,
    "Ġgoddamn": 43546,
    "Ġbumps": 34029,
    "organisms": 45165,
    "EE": 6500,
    "ÃĥÃĤ": 5808,
    "Ġgaming": 7776,
    "Ġweird": 7650,
    "An": 2025,
    "([": 26933,
    "ĠTransactions": 46192,
    "orius": 48759,
    "Ġpowers": 5635,
    "ĠExhibition": 48064,
    "ĠTec": 48257,
    "ppel": 46357,
    "irgin": 4672,
    "isible": 12843,
    "Regardless": 27894,
    "ĠRap": 12281,
    "ĠLaugh": 47501,
    "Ġesche": 42833,
    "Ġintellectual": 9028,
    "omez": 30010,
    "Frame": 19778,
    "Fixed": 13715,
    "Ġrepairs": 20097,
    "culus": 17576,
    "Ġdetermining": 13213,
    "Stack": 25896,
    "Ġglitch": 29204,
    "Ġportfolio": 15320,
    "Episode": 23758,
    "Ġtx": 27765,
    "Ġparanoia": 34370,
    "Ġdemocrat": 43268,
    "ĠTODAY": 20092,
    "Simon": 35475,
    "ĠUnlimited": 26774,
    "Parts": 42670,
    "how": 4919,
    "itia": 36723,
    "Ġscream": 8196,
    "Ġshrugged": 28271,
    "Ġaccumulate": 29915,
    "ĠWr": 15634,
    "Ġtraveler": 40168,
    "ĠHas": 7875,
    "ĠCitizens": 18029,
    "ĠWeir": 46669,
    "ĠTimothy": 22283,
    "ĠUnc": 28304,
    "ĠConference": 8785,
    "PE": 11401,
    "ĠÂ½": 25208,
    "ĠRare": 14423,
    "Ġcorrectly": 9380,
    "ĠNegative": 36183,
    "911": 35549,
    "ĠNeigh": 22505,
    "ĠOrganization": 12275,
    "Ġsupermarkets": 40875,
    "10": 940,
    "Ġsimultaneous": 29526,
    "(),": 22784,
    "Ġawarded": 11343,
    "ĠTalks": 47595,
    "open": 9654,
    "Prior": 22442,
    "Ġcho": 1727,
    "Ġnicotine": 21856,
    "Ġdriving": 5059,
    "Ġadherents": 46372,
    "iesta": 36283,
    "akings": 45665,
    "'t": 470,
    "ĠKills": 23478,
    "Ġfacilitates": 42699,
    "kb": 32812,
    "Matt": 13448,
    "esome": 5927,
    "Ġmerciless": 40618,
    "Ġchat": 8537,
    "Ġemitted": 31234,
    "ĠMick": 32722,
    "Ġexist": 2152,
    "Fin": 18467,
    "ĠLSD": 27483,
    "album": 40916,
    "ĠMobile": 12173,
    "Ġsinister": 26592,
    "ĠDOD": 42756,
    "ĠOnt": 9463,
    "ĠDRAG": 44779,
    "ĠSupplement": 23150,
    "Ġtentacles": 41192,
    "grain": 48270,
    "ĠNEW": 12682,
    "Reading": 36120,
    "Ġrobots": 14193,
    "Ġsuccessfully": 7675,
    "ĠKarma": 32648,
    "ĠCowboy": 48706,
    "ĠSPACE": 37253,
    "ĠOrchestra": 34017,
    "Ġspreads": 26779,
    "Ġkitchens": 48184,
    "Ġtame": 37812,
    "DH": 41473,
    "Ġdivides": 36319,
    "Ġmana": 13149,
    "Background": 21756,
    "arted": 19112,
    "Ġstarter": 14217,
    "jad": 38442,
    "setup": 40406,
    "}\"": 36786,
    "ĠAmos": 49104,
    "ĠAndy": 12382,
    "×ŀ": 49168,
    "ĠCloak": 36558,
    "Ġloot": 16702,
    "ĠMahmoud": 38554,
    "Ġ246": 34951,
    "Ġ1992": 9768,
    "Ġstandby": 42020,
    "ician": 6749,
    "Ġ8000": 38055,
    "Ġcurious": 11040,
    "prim": 19795,
    "Jul": 16980,
    "Ġland": 1956,
    "ĠCash": 16210,
    "Ġfright": 12773,
    "ĠIPO": 41805,
    "ĠDynamo": 41542,
    "Ġhumankind": 47634,
    "909": 44675,
    "ĠStun": 43516,
    "Ġmarking": 18730,
    "family": 17989,
    "pire": 5111,
    "¢": 95,
    "ĠGrim": 17525,
    "untled": 46343,
    "Ġsquares": 24438,
    "ĠAssoci": 3928,
    "ĠContest": 27297,
    "Ġgimm": 33135,
    "Ġbrisk": 35984,
    "Ġgamers": 15072,
    "Ġimplement": 3494,
    "Ġcease": 13468,
    "Ġtitle": 3670,
    "ĠOccupations": 48227,
    "phasis": 28432,
    "Ġsometimes": 3360,
    "Ġbody": 1767,
    "Ġunseen": 29587,
    "Ġclue": 18437,
    "Ġanarchists": 29676,
    "Ġcognition": 31119,
    "Ġabusive": 19546,
    "Ġeyewitness": 34316,
    "Ġanomaly": 32172,
    "Ġsecond": 1218,
    "ĠHalf": 13139,
    "ĠNFC": 24004,
    "Ġimag": 3590,
    "antha": 32589,
    "Ġ99": 7388,
    "Ġluggage": 31488,
    "Ĳ": 238,
    "Ġrods": 32858,
    "ĠMetropolitan": 21609,
    "Ġ*": 1635,
    "****************": 8412,
    "eways": 43613,
    "Ġconspiring": 50186,
    "://": 1378,
    "Ġtale": 12838,
    "ĠGim": 41123,
    "Ġvitro": 30590,
    "ĠTiff": 35775,
    "Charl": 24453,
    "ĠGiul": 35267,
    "Ġrecycling": 25914,
    "ĠWrit": 12257,
    "Ġemphatically": 49206,
    "Repe": 47541,
    "ĠDuty": 18104,
    "Ġviz": 48569,
    "Brand": 38416,
    "Ġfacing": 6476,
    "ĠLo": 6706,
    "ĠCharge": 20260,
    "ĠDifferent": 20615,
    "ĠBringing": 48985,
    "scription": 33584,
    "ĠFowler": 33693,
    "224": 24137,
    "ĠPurple": 17265,
    "Ġlocals": 17205,
    "Friends": 36705,
    "gets": 11407,
    "Ġteleportation": 48285,
    "Ġachievement": 13293,
    "Ġtailored": 27571,
    "odynam": 24319,
    "ere": 567,
    "anyl": 34816,
    "omach": 10806,
    "ĠFA": 9677,
    "Ġantioxidant": 39766,
    "ĠSere": 30175,
    "Ġfinanced": 29768,
    "About": 8585,
    "rows": 8516,
    "ient": 1153,
    "Ġtransferred": 11172,
    "Ġneoliberal": 31972,
    "esta": 18059,
    "Ġabsorbed": 19233,
    "Ġaccessories": 18199,
    "Ġenigmatic": 48584,
    "bon": 4189,
    "ĠWrap": 41028,
    "\":\"\"},{\"": 47182,
    "Ġtariff": 36427,
    "swing": 46737,
    "Ġmidfield": 12459,
    "ĠStraight": 27680,
    "Ġpiety": 44296,
    "rypt": 6012,
    "Fine": 34389,
    "Ġrepression": 28279,
    "Ġrest": 1334,
    "sson": 16528,
    "Ġsid": 9785,
    "Ġfriendly": 8030,
    "Ġcontribut": 4076,
    "Ġcentury": 4289,
    "Ġhaun": 17791,
    "uman": 3778,
    "radius": 42172,
    "Cent": 19085,
    "ĠBelgium": 15664,
    "Ġmessage": 3275,
    "ĠRepublicans": 4734,
    "Ġlocated": 5140,
    "Ġspared": 31348,
    "Ġlandlord": 17335,
    "Ġpublished": 3199,
    "Ġbattered": 33613,
    "ĠMartha": 27243,
    "ĠMeditation": 41616,
    "Ġindemn": 47846,
    "Ġrealize": 6537,
    "Ġritual": 12146,
    "lt": 2528,
    "ĠFOIA": 41245,
    "Ġhomers": 38818,
    "ĠVictor": 12622,
    "gallery": 24460,
    "Ġmoderate": 10768,
    "Ġcommercial": 5068,
    "ĠWarranty": 43892,
    "Ġtore": 26197,
    "Ġmillennia": 38710,
    "ĠECB": 36285,
    "Ġdelegation": 22635,
    "ĠRust": 17103,
    "Ġinterpre": 16795,
    "ĠPy": 9485,
    "iere": 13235,
    "Ġsurvives": 36417,
    "Luckily": 42332,
    "Disney": 37338,
    "ĠGained": 34775,
    "ĠEDITION": 39219,
    "Ġcompromise": 13110,
    "vu": 40939,
    "Ġcirca": 37211,
    "Ġimport": 1330,
    "Ġproxy": 15741,
    "atri": 26646,
    "fox": 12792,
    "party": 10608,
    "opausal": 47637,
    "Ġwont": 28329,
    "Ġcheckout": 28006,
    "Ġfaced": 7452,
    "Ġreasoned": 37857,
    "ĠNuggets": 33978,
    "Ġcris": 4442,
    "ĠFully": 40234,
    "ĠBert": 22108,
    "Ġfound": 1043,
    "podcast": 46032,
    "Ġadvert": 6728,
    "morning": 43911,
    "ohydrate": 46358,
    "idate": 20540,
    "JA": 37048,
    "Ġ255": 14280,
    "Ġdb": 20613,
    "oco": 25634,
    "Ġevaluates": 47850,
    "ĠBatman": 9827,
    "Liquid": 41966,
    "Ġarrang": 9020,
    "agin": 23183,
    "Ġrewritten": 30101,
    "Ġmarqu": 44054,
    "ĠStarg": 44393,
    "Ġarous": 22015,
    "chool": 1251,
    "ĠShak": 35274,
    "ĠFace": 15399,
    "ivals": 10336,
    "/_": 47835,
    "ĠTrading": 25469,
    "ĠFortunately": 20525,
    "Ġfictional": 19812,
    "reaching": 30771,
    "ishi": 21644,
    "Prem": 24914,
    "ĠFeatured": 38188,
    "Ġdetecting": 31521,
    "Ġsacrament": 49081,
    "ABC": 24694,
    "Ġsurfaced": 23786,
    "Ġattendants": 46337,
    "ĠCrisis": 18660,
    "Ġhut": 40812,
    "ĠCt": 43166,
    "ski": 20545,
    "Learn": 20238,
    "ĠCompleted": 32983,
    "Ġsynchron": 18305,
    "Ġunivers": 5820,
    "spell": 46143,
    "changes": 36653,
    "680": 37397,
    "Å«": 20317,
    "Ġteens": 15508,
    "IRED": 37819,
    "cond": 17561,
    "ĠSteve": 6542,
    "azor": 17725,
    "Ġcowboy": 42966,
    "ĠHDL": 48867,
    "ĠDuo": 36086,
    "ĠEthernet": 31903,
    "ĠIMP": 30023,
    "Ġmotivation": 14052,
    "onda": 13533,
    "Ġantennas": 43813,
    "Ġrelevant": 5981,
    "why": 22850,
    "ĠAbout": 7994,
    "Ġcanoe": 47434,
    "road": 6344,
    "Ġguests": 10650,
    "HTTP": 40717,
    "????????": 35709,
    "Ġadmitting": 22688,
    "Ġmodule": 8265,
    "iency": 6160,
    "Ġtips": 9040,
    "authors": 41617,
    "ONS": 19213,
    "ĠCanadiens": 33664,
    "DCS": 49513,
    "Ġrecognizing": 22650,
    "Magikarp": 41538,
    "Spanish": 43584,
    "ĠFlood": 25588,
    "Ġthermal": 18411,
    "Ġordered": 6149,
    "ĠChevron": 50083,
    "Ġworkers": 3259,
    "vel": 626,
    "Ġunnecess": 11689,
    "negie": 32360,
    "Ġfireworks": 26056,
    "Ġcongreg": 30663,
    "Ġescort": 27675,
    "ĠMorph": 41170,
    "react": 45018,
    "ĠReporting": 29595,
    "Ġcompar": 4616,
    "daughter": 29642,
    "ĠSustainable": 45276,
    "ĠJupiter": 22721,
    "GHz": 23741,
    "Ġteaching": 7743,
    "Output": 26410,
    "Week": 20916,
    "ĠMoon": 6869,
    "Ġconveyed": 33348,
    "Ġinflict": 28640,
    "incinnati": 15130,
    "Ġsuggestive": 42789,
    "Ġ258": 37528,
    "Ġdemonstrated": 9555,
    "ĠPlug": 22689,
    "ishly": 29735,
    "ability": 1799,
    "ie": 494,
    "ĠBeware": 49538,
    "Ġsave": 3613,
    "Ġshalt": 36258,
    "Ġuncontrolled": 47913,
    "Ġturtles": 36288,
    "Ġ///": 34013,
    "Ġhold": 1745,
    "ĠGrey": 13980,
    "ĠHab": 19654,
    "ĠMyanmar": 22815,
    "Ġrewards": 11530,
    "Ġdeath": 1918,
    "uten": 7809,
    "Ġ96": 9907,
    "Hel": 12621,
    "Ġdestroy": 4117,
    "agna": 48669,
    "uls": 5753,
    "ĠTaxi": 49227,
    "Jack": 14295,
    "ĠAvenger": 45270,
    "Ġconvinc": 15609,
    "ULE": 24212,
    "Ġlent": 26269,
    "Ġ\"": 366,
    "ĠFigures": 36574,
    "Ġtom": 16667,
    "ĠMarty": 29876,
    "Ġobsession": 22286,
    "Ġmound": 31446,
    "ĠByron": 36719,
    "Ġprotester": 34678,
    "ĠAnge": 49759,
    "ĠDash": 16189,
    "arist": 34566,
    "Č": 200,
    "Ġminor": 4159,
    "ĠKD": 43943,
    "ĠSaud": 6746,
    "Ġreviewed": 11765,
    "properties": 48310,
    "ĠFeather": 34501,
    "ENGTH": 49494,
    "ĠPerform": 35006,
    "ĠSuzuki": 35807,
    "eeks": 32201,
    "icester": 26382,
    "corn": 20772,
    "ĠVisa": 27645,
    "Ġconvention": 9831,
    "Ġteam": 1074,
    "Ġreporting": 6447,
    "ĠMcGee": 45476,
    "990": 34155,
    "Ġremoving": 10829,
    "Pr": 6836,
    "Frag": 42974,
    "Your": 7120,
    "ĠHighway": 14914,
    "Ġdrop": 4268,
    "XT": 25010,
    "Ġlower": 2793,
    "Ġperforms": 17706,
    "Ġedge": 5743,
    "Ġpropri": 15159,
    "FS": 10652,
    "ĠThings": 11597,
    "Mars": 43725,
    "ĠLevels": 28248,
    "Taking": 26556,
    "levels": 46170,
    "abilia": 48249,
    "âĢĶ-": 44839,
    "Ġledge": 35614,
    "Ġ2012": 2321,
    "people": 15332,
    "ĠIcon": 26544,
    "Ġstation": 4429,
    "ERT": 17395,
    "ĠHell": 5783,
    "ĠProducer": 30436,
    "Ġcontainers": 16472,
    "agame": 46746,
    "Ġrav": 24343,
    "Ġcomputer": 3644,
    "ĠOPEC": 49280,
    "Recomm": 24898,
    "ĠThief": 23471,
    "Ġroutine": 8027,
    "Ġclueless": 44865,
    "ia": 544,
    "ĠHit": 7286,
    "Chel": 38292,
    "SP": 4303,
    "Starting": 22851,
    "Ġconstantly": 7558,
    "rob": 22609,
    "1976": 38108,
    "Ġ09": 7769,
    "exc": 41194,
    "Ġpoliticians": 7602,
    "ĠBlackburn": 42603,
    "aund": 14677,
    "ĠDemocracy": 20265,
    "Ġrecept": 9420,
    "Ġneighbouring": 29272,
    "Ġmacro": 15021,
    "ĠCompetition": 27348,
    "Albert": 42590,
    "Ġexhibit": 15866,
    "Ġingestion": 38382,
    "Ġupkeep": 47363,
    "Ġinaugural": 26851,
    "ĠWraith": 40106,
    "ĠOEM": 29671,
    "ĠFrankenstein": 45738,
    "Ġsuites": 45861,
    "Ġversa": 25470,
    "For": 1890,
    "pleting": 47130,
    "======": 50155,
    ");": 1776,
    "Ġmeshes": 48754,
    "Ġfreight": 30724,
    "OPLE": 34354,
    "ffe": 16658,
    "Ty": 25492,
    "toggle": 44256,
    "program": 23065,
    "Ġ240": 14956,
    "GS": 14313,
    "334": 31380,
    "\").": 11074,
    "Ġfold": 5591,
    "Ġpra": 7201,
    "ĠWings": 17330,
    "ĠEnvironmental": 13272,
    "Ġhardcore": 22823,
    "Ġrewarded": 20945,
    "ĠUh": 28574,
    "ĠFranken": 25301,
    "Ġexasper": 41851,
    "Ġvirginity": 48533,
    "Ġoptim": 6436,
    "ĠCALL": 42815,
    "inately": 48618,
    "ĠMcD": 23394,
    "ĠNation": 8741,
    "Ġacc": 697,
    "creat": 20123,
    "Ġeagle": 31176,
    "ĠWeiss": 16152,
    "Ġunilateral": 37095,
    "umph": 12875,
    "ĠNicotine": 41090,
    "ĠBAS": 29809,
    "ĠSlay": 46809,
    "ĠCrimes": 32655,
    "Ġsynaptic": 46679,
    "ans": 504,
    "pot": 13059,
    "ĠRasmussen": 46549,
    "Ġtaco": 47884,
    "Ġparity": 34383,
    "GES": 48075,
    "ĠFare": 35205,
    "Ġanalytics": 23696,
    "Ġregistration": 9352,
    "ĠConver": 35602,
    "Mp": 28861,
    "ord": 585,
    "Ġdriveway": 33515,
    "Ġfranchises": 28088,
    "ĠKaf": 33913,
    "Ġvictims": 4970,
    "ĠDid": 7731,
    "Ġausterity": 22518,
    "arius": 19897,
    "ĠLIC": 38559,
    "aughlin": 42730,
    "eting": 13629,
    "Go": 5247,
    "Ġ120": 7982,
    "ĠAz": 7578,
    "oven": 16206,
    "ĠMarketplace": 36703,
    "asma": 11797,
    "draft": 35679,
    "Ġstudied": 9713,
    "Ġartist": 6802,
    "VT": 36392,
    "Ġelbows": 37076,
    "ĠRadiant": 34145,
    "Ġend": 886,
    "pro": 1676,
    "Ġdownward": 20841,
    "efined": 18156,
    "Courtesy": 31825,
    "Thumbnail": 35523,
    "Ġbusinessmen": 34643,
    "Ġshower": 14643,
    "Ġregulating": 26379,
    "Ġcrew": 5462,
    "Ġfearless": 43157,
    "Ġcontinuing": 8282,
    "754": 41874,
    "Ġdisproportionate": 30982,
    "Ġcog": 43072,
    "Ġsystematic": 17895,
    "Ġ'(": 29513,
    "Ġlemon": 18873,
    "Ġentitled": 9080,
    "uned": 40881,
    "Ġveter": 5785,
    "ox": 1140,
    "Ġneighboring": 19651,
    "brow": 25367,
    "Ã³": 10205,
    "Ġphase": 7108,
    "Ġvirtues": 27494,
    "WIND": 28929,
    "Anti": 28795,
    "frame": 14535,
    "ĠMy": 2011,
    "Ġcommunities": 5348,
    "URN": 27064,
    "ĠPriv": 9243,
    "Ġchar": 1149,
    "azard": 26267,
    "Ġpointless": 27158,
    "regular": 16338,
    "WW": 17947,
    "nr": 48624,
    "Â°": 7200,
    "ĠCurt": 19569,
    ".\",\"": 41424,
    "ĠAfterwards": 39063,
    "ĠAST": 29273,
    "ĠMusical": 33375,
    "Internal": 37693,
    "ĠAK": 15837,
    "Ġenvelop": 16441,
    "LCS": 29814,
    "enezuel": 12596,
    "Ġnostalgia": 30889,
    "Ġhim": 683,
    "Ġrespectfully": 41177,
    "Ġseizure": 22338,
    "Ġancest": 10790,
    "hing": 722,
    "Fat": 33804,
    "shell": 29149,
    "Ġcaptives": 46522,
    "Ġcrises": 25712,
    "Ġrupture": 46836,
    "Ġinformants": 50254,
    "cp": 13155,
    "VICE": 27389,
    "Ġcampaign": 1923,
    "Ġpayload": 21437,
    "Ġprem": 4199,
    "getting": 37210,
    "appings": 39242,
    "Ġousted": 37822,
    "ĠUs": 4021,
    "ĠVM": 16990,
    "Ġdiffusion": 44258,
    "Ġarrive": 9240,
    "ennett": 48151,
    "ĠLewis": 10174,
    "anie": 34166,
    "Ġ07": 8753,
    "Ġapproached": 10448,
    "Ġpowerless": 34209,
    "Ġdiffering": 28742,
    "ĠNeighborhood": 37914,
    "Ġcance": 10450,
    "ĠImprove": 20580,
    "isma": 38017,
    "Ġstaff": 3085,
    "Soft": 18380,
    "Ġcourier": 48934,
    "Ġenterprise": 13953,
    "Ġexpenses": 9307,
    "Ġanthropology": 45424,
    "ctrl": 44755,
    "ĠFS": 23324,
    "Ġthri": 19531,
    "Ġholog": 31912,
    "ĠMath": 16320,
    "ĠRights": 6923,
    "ĠAshes": 34143,
    "ĠASC": 25400,
    "cast": 2701,
    "spread": 43639,
    "Ġprerequisite": 43119,
    "Ġoil": 3056,
    "Ġscr": 6040,
    "Ġexpecting": 12451,
    "Ġcamel": 41021,
    "ĠIA": 35229,
    "Ġceases": 42217,
    "forming": 15464,
    "Bal": 24597,
    "ĠPhantom": 14407,
    "Sah": 32194,
    "ĠLug": 31541,
    "Ġlistener": 24783,
    "!,": 28265,
    "ĠShane": 24379,
    "Ġcoax": 37700,
    "ixon": 12305,
    "Ġstunt": 25756,
    "cons": 5936,
    "Ġappl": 3680,
    "Ġuntrue": 35212,
    "Best": 13014,
    "Ġresponsibly": 43493,
    "ĠCommissioners": 48053,
    "terrorist": 42002,
    "Conservative": 42039,
    "Ġswitches": 18225,
    "Ġpopup": 46207,
    "Ġmodernization": 49400,
    "Ġsales": 4200,
    "urally": 20221,
    "ĠUNC": 39151,
    "Ġdemand": 3512,
    "Ġthereof": 15370,
    "Ġzipper": 48992,
    "Ġmercenary": 39876,
    "ĠLic": 10483,
    "ĠCorinth": 31268,
    "cars": 37993,
    "Ġsanctioned": 30572,
    "Ġdavid": 21970,
    "Ġ366": 44856,
    "Ġdisturb": 17037,
    "Ġepis": 48177,
    "ĠÄ": 34754,
    "OE": 27799,
    "Ġcountless": 12925,
    "Ġfeature": 3895,
    "ĠMusic": 7849,
    "Ġvulgar": 31016,
    "Ġignoring": 15482,
    "cases": 33964,
    "onge": 14220,
    "m": 76,
    "mens": 45535,
    "Finally": 11158,
    "London": 23421,
    "Ġroughly": 7323,
    "Note": 6425,
    "Ġpainting": 12036,
    "ĠLift": 43711,
    "ĠNinja": 14152,
    "Ġrepublican": 41477,
    "auder": 29233,
    "Ġpowered": 13232,
    "ĠYon": 46340,
    "Ġdeclare": 13627,
    "ĠPATH": 46490,
    "į": 235,
    "helial": 35566,
    "EMA": 27630,
    "74": 4524,
    "actory": 9548,
    "Ġ1953": 24217,
    "Ġcontributions": 9284,
    "Ġpolls": 9231,
    "Ġsprung": 39388,
    "Ġbehavior": 4069,
    "express": 42712,
    "Ġoutlines": 27430,
    "Ġurgent": 18039,
    "Ġtraumatic": 25115,
    "::::::::": 43661,
    "je": 18015,
    "ĠLam": 10923,
    "oval": 8325,
    "Ġinciting": 47494,
    "ues": 947,
    "Ġcheers": 34550,
    "oppable": 35628,
    "Ġrider": 17876,
    "Ġdistraught": 48629,
    "Ġitching": 48140,
    "Ġdefinitely": 4753,
    "ĠGeorg": 6850,
    "Ġmusic": 2647,
    "Ġfrequency": 8373,
    "Ġconcentrating": 37367,
    "changing": 22954,
    "ĠRecording": 43905,
    "Ġfibre": 33073,
    "ĠUP": 15958,
    "ouf": 37116,
    "Ġspell": 4822,
    "ĠFast": 12549,
    "kHz": 44191,
    "ĠChelsea": 12147,
    "Earth": 22840,
    "ĠAmph": 40185,
    "arning": 4228,
    "ĠShu": 32344,
    "Ġdue": 2233,
    "ĠTechniques": 49686,
    "Ġshri": 35064,
    "Ġ1948": 21794,
    "Ġextremely": 4457,
    "598": 41292,
    "ĠSunday": 3502,
    "Ġintegrating": 32029,
    "burning": 44313,
    "Ġgithub": 33084,
    "ĠFrey": 35086,
    "Ġbranching": 49526,
    "Ġmagazines": 16695,
    "Ġsubsequent": 8840,
    "lisher": 8191,
    "Ġprank": 33401,
    "entially": 3746,
    "Ġbackward": 19528,
    "Ġfringe": 26821,
    "Occup": 47658,
    "Ġâĸº": 34933,
    "Ġpneum": 29631,
    "Ġefficiency": 9332,
    "Ġsixth": 11695,
    "Ġ181": 30110,
    "scar": 13034,
    "Ġlot": 1256,
    "ãĢģ": 23513,
    "ĠWordPress": 22477,
    "Ġwrought": 38733,
    "Ġlock": 5793,
    "Ġbowed": 35737,
    "Ġwarmth": 23125,
    "Ġgambling": 19029,
    "Ġyouths": 28247,
    "Ġutilitarian": 48239,
    "Ġstere": 10268,
    "Ġordained": 36777,
    "ĠWaves": 42733,
    "ĠMellon": 49808,
    "Ġdumping": 30231,
    "Ġcampaigns": 9964,
    "Ġneo": 19102,
    "olor": 45621,
    "assisted": 42191,
    "hall": 18323,
    "ĠRey": 24448,
    "Ġmagnification": 44120,
    "wark": 48542,
    "community": 28158,
    "Ġarbitration": 26038,
    "Ġdusk": 46166,
    "oops": 44860,
    "Ġ1896": 46723,
    "ĠBF": 41646,
    "Ġpotent": 16739,
    "Ġhypoc": 33240,
    "Ġcontrasted": 49754,
    "Ġknown": 1900,
    "cor": 10215,
    "Ġwireless": 12521,
    "Ġsubdued": 38759,
    "Ġbaked": 22979,
    "ancers": 20811,
    "ĠUsage": 29566,
    "ÃĽÃĽ": 48396,
    "ĠOuts": 46580,
    "Ġexchange": 5163,
    "unctions": 46797,
    "Ġè£ı": 6438,
    "ĠELECT": 46323,
    "Ġhearing": 4854,
    "ĠMoreover": 10968,
    "Ġpict": 2862,
    "ÑĢ": 21169,
    "ĠIronically": 37731,
    "Ġagriculture": 14510,
    "question": 25652,
    "ĠPhi": 47256,
    "Ġindustrialized": 47670,
    "ede": 18654,
    "ĠBAR": 31597,
    "Ġalien": 8756,
    "ince": 924,
    "sta": 38031,
    "ĠSpencer": 15971,
    "Ġpopcorn": 38914,
    "Ġhorribly": 33437,
    "bands": 21397,
    "mberg": 47369,
    "rec": 8344,
    "Ġsongs": 7259,
    "ONSORED": 36406,
    "ases": 1386,
    "ĠSym": 15845,
    "Ġleveraging": 42389,
    "Ġcolorful": 20239,
    "785": 41172,
    "ĠLib": 7980,
    "Ġtaller": 25242,
    "âĨĴ": 39310,
    "TEXTURE": 47648,
    "Ġinterpol": 39555,
    "Ġscientists": 5519,
    "Ġculminating": 43896,
    "Ġpoisoned": 29419,
    "Ġpractices": 6593,
    "Ġ335": 37144,
    "Ġtemperament": 36140,
    "ĠEmployee": 36824,
    "å¤©": 25465,
    "expl": 20676,
    "vv": 25093,
    "opic": 16603,
    "ific": 811,
    "ĠMorris": 14433,
    "Ġwinding": 28967,
    "Ġcords": 45173,
    "Ġdeg": 3396,
    "Ġchaired": 44170,
    "b": 65,
    "ichen": 41437,
    "Ġspicy": 26880,
    "Support": 15514,
    "Ġslid": 27803,
    "Ġshopping": 9735,
    "Ġconj": 11644,
    "arians": 13517,
    "ItemThumbnailImage": 39177,
    "ĠChimera": 38399,
    "ĠM": 337,
    "ĠPyongyang": 21614,
    "ðŁĺ": 47249,
    "Ġclin": 5327,
    "Ġlatt": 47240,
    "Not": 3673,
    "ching": 10813,
    "gt": 13655,
    "amas": 17485,
    "Ġdownloadable": 41496,
    "ix": 844,
    "Ġludicrous": 35214,
    "Ġcounterparts": 16054,
    "Ġsweet": 6029,
    "phans": 44464,
    "ĠLucius": 42477,
    "Ġexposure": 7111,
    "Ġbanging": 42028,
    "Ġcontentious": 27154,
    "Ġcytok": 42440,
    "ĠOften": 18023,
    "Ġmods": 13743,
    "Ġcommitting": 17222,
    "Ġ43": 5946,
    "Ġbelief": 4901,
    "Ã©e": 22161,
    "ĠMecca": 35247,
    "Council": 40940,
    "Ġprotr": 39701,
    "rounder": 45788,
    "ibia": 41145,
    "ĠAP": 3486,
    "ussie": 43480,
    "ĠConor": 41708,
    "Ġ1998": 7795,
    "urus": 31891,
    "Ġeffect": 1245,
    "Ġpressure": 3833,
    "Meet": 29318,
    "LOS": 45376,
    "31": 3132,
    "æĸ¹": 43095,
    "Ġwhiff": 48112,
    "Ġframing": 30811,
    "ĠCalgary": 17842,
    "Ġunchanged": 21588,
    "Ġunbelievable": 24479,
    "ĠStep": 5012,
    "Ġinstructor": 21187,
    "ĠLaws": 21153,
    "Conclusion": 21481,
    "Ġexclusively": 11541,
    "Ã¨": 14064,
    "ĠRodgers": 19947,
    "ody": 1118,
    "ĠNing": 37400,
    "ired": 1202,
    "youtu": 32594,
    "_.": 44807,
    "ĠRegulations": 26108,
    "ĠWo": 22173,
    "Ġoptimization": 23989,
    "ĠHIP": 48254,
    "ĠReign": 29297,
    "2016": 5304,
    "Ġlegislatures": 38081,
    "ureau": 6262,
    "Ġwildfire": 44508,
    "Copyright": 15269,
    "Ġsuprem": 14889,
    "Ġfolklore": 46623,
    "Ġdesert": 10326,
    "Ġbart": 30539,
    "ĠjQuery": 37420,
    "Ġaforementioned": 20794,
    "Solid": 46933,
    "Ġmemorable": 18078,
    "Ġket": 22354,
    "Ġwarships": 44304,
    "Mo": 16632,
    "ĠCody": 27035,
    "Ġflash": 7644,
    "ythm": 34853,
    "ĠIsn": 25110,
    "eus": 27650,
    "013": 30273,
    "ross": 1214,
    "AG": 4760,
    "ĠYorkshire": 31157,
    "ĠLegendary": 22067,
    "ĠClan": 22467,
    "Ġ<[": 29342,
    "Ġbatch": 15458,
    "Ġspilling": 45085,
    "ĠRussian": 3394,
    "main": 12417,
    "Ġexperiences": 6461,
    "ĠBright": 17558,
    "Ġsymbol": 6194,
    "ibling": 27448,
    "~~~~~~~~": 15116,
    "ĠFam": 16513,
    "Ġlie": 6486,
    "ĠWTO": 47074,
    "ĠHaj": 29399,
    "Ġmanure": 48577,
    "iked": 17951,
    "Sensor": 47864,
    "Ġbriefing": 17719,
    "Ġpowerfully": 48745,
    "ĠHeaven": 11225,
    "ĠOrlando": 13117,
    "Apply": 44836,
    "Ġinsecurity": 33837,
    "bits": 9895,
    "uku": 33263,
    "Thanks": 9690,
    "Ġchange": 1487,
    "Ġyourself": 3511,
    "women": 25878,
    "amination": 24979,
    "Arizona": 40732,
    "Ġwrote": 2630,
    "Ġcleaners": 50102,
    "Ġdentist": 38408,
    "Ġexclaimed": 33552,
    "ĠHare": 42285,
    "SAN": 36753,
    "Ġbush": 24484,
    "ĠManz": 37734,
    "ĠRelationship": 39771,
    "arters": 6137,
    "Ġerased": 33588,
    "ĠCleveland": 10306,
    "Therefore": 26583,
    "ĠRonald": 14430,
    "ĠHAR": 43638,
    "ĠPortable": 44685,
    "outheastern": 27873,
    "ĠDACA": 38061,
    "ĠDrift": 39819,
    "Ġsl": 1017,
    "/)": 34729,
    "Ġ161": 27829,
    "Super": 12442,
    "540": 35005,
    "Ġpupp": 13595,
    "ĠHighlights": 30776,
    "ĠAstros": 27463,
    "Ġinfo": 7508,
    "bs": 1443,
    "ĠRPG": 12909,
    "ĠCongratulations": 49185,
    "Ġ330": 25508,
    "Ġcleansing": 32784,
    "ĠCharleston": 26070,
    "ĠIran": 4068,
    "Ġcommunity": 2055,
    "Ġstoryline": 22992,
    "Ġaccounted": 17830,
    "ensible": 27339,
    "**": 1174,
    "itance": 42942,
    "aryn": 38621,
    "wolf": 18829,
    "Ġgains": 8810,
    "bish": 31795,
    "Ġeconomically": 20324,
    "Ġknows": 4206,
    "ĠShutterstock": 37356,
    "atography": 45501,
    "Ġoblig": 6263,
    "Disk": 40961,
    "Installation": 30838,
    "Ġroof": 9753,
    "ĠAndrea": 23174,
    "Ġonce": 1752,
    "ĠHawkins": 32534,
    "Ġsubclass": 47611,
    "Ġcontinent": 15549,
    "AP": 2969,
    "Ġ----------------------------------------------------------------": 16529,
    "Ġanew": 44951,
    "Ġdisgr": 19329,
    "ĠBridge": 10290,
    "isms": 6583,
    "Again": 15316,
    "iya": 21008,
    "hhhh": 36607,
    "ĠBelow": 10383,
    "LIST": 45849,
    "Ġ312": 34465,
    "Ġpasta": 26296,
    "Ġenvironment": 2858,
    "Sin": 46200,
    "Ġbrushes": 36377,
    "ĠWarsaw": 32955,
    "ĠIon": 36404,
    "Ġillusions": 34739,
    "Ġcer": 26074,
    "Bro": 15783,
    "itional": 1859,
    "ĠAunt": 38074,
    "Beck": 43454,
    "posing": 32927,
    "Ġurban": 7876,
    "Snow": 28974,
    "ilies": 3922,
    "Ġquantities": 17794,
    "holy": 44287,
    "Document": 24941,
    "Ġtorrent": 24458,
    "odus": 21878,
    "Ġess": 3209,
    "Ġprograms": 4056,
    "pent": 16923,
    "Ġintrusive": 39930,
    "inder": 5540,
    "ĠMarcos": 37033,
    "Ġyr": 42635,
    "iving": 1412,
    "adle": 35166,
    "wn": 675,
    "].\"": 29225,
    "Econom": 28489,
    "ĠPlatinum": 23851,
    "Ġresult": 1255,
    "of": 1659,
    "inqu": 18934,
    "oux": 22193,
    "Ġsmugg": 19176,
    "Ġ100": 1802,
    "ĠApple": 4196,
    "HE": 13909,
    "Ġaudiences": 15579,
    "Linux": 19314,
    ";;;;": 14223,
    "Ġprivileged": 21929,
    "???": 28358,
    "Those": 9627,
    "monkey": 49572,
    "occupied": 28756,
    "ĠAttack": 8307,
    "ĠDietary": 40767,
    "Ġdepressive": 36568,
    "Ġhrs": 36201,
    "Ġeminent": 37820,
    "Ġoccupant": 47742,
    "ĠNR": 23057,
    "Ġgaining": 13977,
    "ĠHeader": 48900,
    "ement": 972,
    "Ġcircumstance": 25179,
    "Ġrevol": 35891,
    "Ġeligibility": 20069,
    ">)": 43734,
    "Ġcharities": 23980,
    "Ġexert": 17596,
    "?ãĢį": 42943,
    "ĠLM": 37125,
    "ĠSpringfield": 27874,
    "Ġcorridor": 20749,
    "w": 86,
    "ĠRazer": 47890,
    "ileen": 42236,
    "ĠDucks": 27622,
    "ĠDAR": 41649,
    "Ġwrite": 3551,
    "ĠCarlo": 40089,
    "ĠQi": 21924,
    "ĠMandarin": 41621,
    "kan": 27541,
    "ischer": 24645,
    "Ġworthwhile": 24769,
    "itarian": 8353,
    "Ġlang": 42392,
    "SY": 23060,
    "Ġcollectively": 21329,
    "igo": 14031,
    "rities": 19491,
    "ĠSeries": 7171,
    "Cor": 10606,
    "Ġovershadowed": 43861,
    "33": 2091,
    "Ġ529": 49888,
    "iece": 8535,
    "Ġproclaiming": 46431,
    "Har": 13587,
    "Ġbreeding": 18954,
    "erek": 18238,
    "Ġsit": 1650,
    "ricanes": 24881,
    "brid": 10236,
    "rogens": 48686,
    "38": 2548,
    "Ġhall": 6899,
    "Ġmotto": 33600,
    "Old": 19620,
    "_{": 23330,
    "marks": 14306,
    "jee": 34589,
    "Construction": 36687,
    "ĠAmtrak": 49145,
    "ĠFUN": 29397,
    "Ġbounces": 49623,
    "Ġ\",": 33172,
    "Ġpdf": 37124,
    "Ġgunmen": 35141,
    "RT": 14181,
    "ĠISO": 19694,
    "æľ": 17312,
    "Michael": 13256,
    "Ġ'": 705,
    "ĠBrid": 28320,
    "Ġgrandma": 49890,
    "eryl": 44886,
    "ĠguiActiveUn": 29372,
    "Ġhacker": 23385,
    "Ġponds": 47339,
    "Ġextradition": 34908,
    "ober": 2023,
    "Ġvariation": 12291,
    "Ġpresiding": 44851,
    "ĠCharges": 44620,
    "Ġobstacle": 22007,
    "Ġrates": 3965,
    "Ġshadow": 9082,
    "Ġtranscript": 14687,
    "Ġpsychiatry": 43557,
    "ĠUpper": 20390,
    "Ġdeliver": 5203,
    "ù": 181,
    "eta": 17167,
    "Ġastronaut": 33779,
    "Ever": 23921,
    "Ġrepayment": 36411,
    "ĠEquip": 47636,
    "Ġresidue": 35186,
    "Ġoutp": 38701,
    "Ġdiamonds": 30984,
    "Ġselectively": 39119,
    "Ġpopulated": 22331,
    "Ġcolors": 7577,
    "otonin": 29613,
    "Ġlining": 20883,
    "Ġexha": 9286,
    "Ġpayments": 7524,
    "NSA": 47549,
    "Ġdistinguish": 15714,
    "ĠKraken": 43392,
    "Ġdocks": 45906,
    "YOU": 36981,
    "ĠGardens": 29330,
    "Ġinvariably": 31338,
    "ĠDag": 32167,
    "achusetts": 9770,
    "Ġhorsepower": 36696,
    "redits": 20696,
    "Ġfee": 6838,
    "ĠIchigo": 44547,
    "Ġhoop": 44792,
    "Ġseasoning": 46794,
    "Ġroar": 34532,
    "uin": 48441,
    "Ġbar": 2318,
    "ĠWarp": 31382,
    "Ġret": 1005,
    "Ġslaughtered": 33850,
    "icken": 5973,
    "ĠXVI": 49090,
    "Ġchops": 44512,
    "Ġreminded": 14516,
    "export": 39344,
    "Ġselfie": 38704,
    "Ġbulky": 39392,
    "agate": 37861,
    "Ġhotels": 18505,
    "vet": 16809,
    "Average": 26287,
    "ĠPowerful": 46308,
    "ĠFootball": 9957,
    "alien": 42690,
    "ĠDarius": 47129,
    "ĠStev": 42786,
    "Vote": 37394,
    "ĠDefensive": 24784,
    ",,": 9832,
    "Ġspiked": 38927,
    "Ġâĵĺ": 30684,
    "thal": 11669,
    "Ġinterfered": 46414,
    "My": 3666,
    "umping": 25218,
    "idan": 27610,
    "ĠIsles": 36217,
    "Ġcells": 4778,
    "ivities": 28720,
    "sty": 34365,
    "ĠSerbia": 27229,
    "ipped": 3949,
    "ĠEighth": 41040,
    "Ġcatch": 4929,
    "ĠCommunist": 14884,
    "aneers": 33547,
    "L": 43,
    "ĠCG": 29925,
    "author": 9800,
    "Ġautomated": 16359,
    "kered": 28970,
    "CM": 24187,
    "Russian": 16220,
    "Ġer": 1931,
    "Ġcompliance": 11846,
    "Å¡": 32790,
    "ieu": 22304,
    "Ġpowd": 32279,
    "ĠHein": 26431,
    "Ġauthent": 8323,
    "Ġwizards": 34836,
    "ÃĥÃĤÃĥÃĤÃĥÃĤÃĥÃĤÃĥÃĤÃĥÃĤÃĥÃĤÃĥÃĤ": 14827,
    "ĠThunder": 9850,
    "chet": 20043,
    "Ġtestimonies": 49904,
    "Ġlegally": 11119,
    "Ġexpel": 46466,
    "ĠKag": 26785,
    "emon": 7966,
    "ĠScientists": 23782,
    "Ġitself": 2346,
    "ĠEmpire": 8065,
    "ĠArgentina": 16519,
    "free": 5787,
    "ĠPu": 11634,
    "Ġgob": 48484,
    "ĠPitt": 10276,
    "440": 25644,
    "Ġ1979": 13521,
    "ĠBudget": 15401,
    "[/": 13412,
    "Ġadditions": 19885,
    "ĠEb": 12119,
    "ĠThompson": 11654,
    "ĠBalkans": 48100,
    "Ġneuro": 7669,
    "Ġcollector": 22967,
    "coon": 20912,
    "ĠCo": 1766,
    "Ġwarranties": 50174,
    "River": 42204,
    "Ġ392": 48207,
    "Ġreflecting": 20252,
    "Ġexplains": 6688,
    "While": 3633,
    "!": 0,
    "flow": 11125,
    "Ġpaired": 20312,
    "ĠOscar": 15694,
    "iam": 1789,
    "TABLE": 38148,
    "Ġacquisition": 12673,
    "Ġundermin": 16303,
    "Ġcultural": 6467,
    "Oregon": 41243,
    "ĠClintons": 30234,
    "y": 88,
    "Ġbarrier": 13054,
    "Boss": 37310,
    "Pitt": 47627,
    "Ġletting": 9616,
    "ATHER": 45226,
    "Ġmechanisms": 11701,
    "ĠSexual": 19536,
    "Ġaddr": 37817,
    "Ġdesires": 15997,
    "Ġoverth": 34514,
    "ĠCele": 18909,
    "ĠFlow": 27782,
    "Ġripple": 42462,
    "Ġmantra": 32628,
    "raught": 44451,
    "Ġrelocation": 35703,
    "ĠCorn": 11424,
    "Ġjustified": 14460,
    "Ġbishop": 24233,
    "ĠReynolds": 21995,
    "Ġdisabled": 10058,
    "ĠBarn": 11842,
    "ĠPiercing": 47066,
    "ĠLerner": 49750,
    "lasses": 28958,
    "Ġmedian": 14288,
    "Ġendorsed": 17441,
    "ĠArticles": 22698,
    "Ġhob": 32724,
    "insk": 35803,
    "ĠRacing": 14954,
    "Ġurgency": 25615,
    "Ġmotel": 44404,
    "itions": 1756,
    "Ġdominates": 38777,
    "ĠMMR": 41362,
    "Ġcarbohyd": 19476,
    "urrence": 33928,
    "Ġcaveats": 47155,
    "ĠRolling": 21567,
    "ĠLebanese": 28076,
    "ĠKatherine": 32719,
    "Ġextras": 33849,
    "normal": 11265,
    "Ġlearnt": 26338,
    "Ġcoats": 30720,
    "ĠSpeaker": 14931,
    "antically": 31589,
    "Ġvest": 19750,
    "ĠTOP": 28662,
    "Ġambition": 20505,
    "going": 5146,
    "ĠVolt": 22702,
    "Ġbelongs": 14448,
    "Ġf": 277,
    "Ġfug": 31497,
    "ĠSearch": 11140,
    "Ġ{\\": 43839,
    "Ġgravity": 13522,
    "Ġintrigue": 38520,
    "Ġboxing": 21576,
    "ĠWan": 33242,
    "kel": 7750,
    "Ġdisappointment": 18641,
    "Ø§": 12919,
    "igion": 17035,
    "ĠReserved": 33876,
    "driven": 15808,
    "Ġeman": 31184,
    "Ġresolve": 10568,
    "ĠCutter": 49160,
    "Ġcheered": 34767,
    "ĠHD": 5572,
    "Ġkitchen": 9592,
    "pa": 8957,
    "immigrant": 39835,
    "Ġovershadow": 35562,
    "ĠMush": 24257,
    "Ġ51": 6885,
    "Ġoverlay": 33345,
    "Ġpopularity": 11533,
    "Ġsync": 17510,
    "ĠReneg": 41261,
    "Ġwarming": 9917,
    "Ġvectors": 30104,
    "ĠElectronics": 27828,
    "Ġunilaterally": 44486,
    "ĠSoutheast": 21199,
    "Ġelegant": 19992,
    "caster": 17970,
    "kB": 38841,
    "requent": 46018,
    "Ġdict": 8633,
    "ulton": 37944,
    "Ġeyed": 45320,
    "oresc": 45166,
    "ĠMiss": 4544,
    "Ġexcessively": 40437,
    "licts": 42267,
    "Ġreckoned": 46630,
    "pher": 17042,
    "Ġconscious": 6921,
    "ĠASUS": 38100,
    "ĠInstitutes": 33656,
    "Ġsmashed": 23354,
    "ĠAnnounce": 43470,
    "etus": 29158,
    "Ari": 26529,
    "iddling": 41367,
    "Ġdrone": 12170,
    "uberty": 34237,
    "Ġinvestigators": 10093,
    "Ġclumsy": 39120,
    "Ġvendor": 18371,
    "ĠClement": 27311,
    "Draft": 37741,
    "Ġtraditional": 4569,
    "299": 22579,
    "Ġlocality": 48036,
    "Ġposit": 46436,
    "Posted": 14231,
    "Ġdictated": 34756,
    "ĠHon": 8835,
    "Ġkillings": 17709,
    "Ġemergency": 6334,
    "Motion": 45740,
    "clad": 29853,
    "##": 2235,
    "Ġpolitely": 34313,
    "Ġbuttocks": 50193,
    "ĠOy": 39447,
    "charging": 31498,
    "Ġ122": 19409,
    "ĠWestbrook": 35345,
    "ĠExclusive": 35651,
    "ĠSoviet": 7570,
    "itant": 23737,
    "SER": 35009,
    "elf": 7046,
    "ĠAn": 1052,
    "Ġannotations": 37647,
    "Player": 14140,
    "ĠSco": 36179,
    "hol": 3937,
    "ĠAug": 2447,
    "ĠLincoln": 12406,
    "Ġedges": 13015,
    "Ġfinals": 18576,
    "ĠRak": 34299,
    "Ġroast": 32595,
    "Ġperfectly": 7138,
    "ĠSuarez": 39992,
    "Ġcrazy": 7165,
    "carb": 35684,
    "Ġscanned": 28660,
    "Ġplead": 30701,
    "ĠWriting": 22183,
    "Ġsoaking": 41714,
    "making": 8601,
    "Ġturf": 29553,
    "Ġprotracted": 44466,
    "ĠGlac": 42719,
    "Ġ1898": 46244,
    "Wild": 25946,
    "gger": 26679,
    "Ġet": 2123,
    "JB": 47858,
    "begin": 27471,
    "Ġtripled": 43761,
    "completely": 46699,
    "Ġwarped": 43062,
    "ĠSigma": 31669,
    "ĠPalm": 18358,
    "ĠTyph": 27282,
    "ĠPassed": 23228,
    "igating": 29129,
    "ĠHolly": 7764,
    "Mod": 5841,
    "271": 28977,
    "Interstitial": 29447,
    "Ġprovoked": 29579,
    "Tact": 45803,
    "1986": 28054,
    "ĠTactics": 23767,
    "Ġgrants": 11455,
    "ĠGemini": 35495,
    "Ġfigured": 11638,
    "wood": 3822,
    "heid": 28420,
    "ĠBenson": 33940,
    "Expl": 18438,
    "och": 5374,
    "Ġpassport": 17981,
    "School": 26130,
    "ĠSau": 23167,
    "arrell": 47769,
    "Ġsafely": 11512,
    "89": 4531,
    "ĠRecre": 30009,
    "ĠOhio": 6835,
    "loo": 29680,
    "ĠSeconds": 40876,
    "Ġextend": 9117,
    "Ġ((": 14808,
    "ĠObamacare": 12439,
    "ĠPeg": 31084,
    "EV": 20114,
    "Ġ}": 1782,
    "Bush": 36113,
    "ĠOctober": 3267,
    "Ġturb": 14830,
    "ĠISS": 33805,
    "uxe": 18095,
    "Ġ180": 11546,
    "ĠFlesh": 38998,
    "Ġbecoming": 5033,
    "Ġamendments": 17835,
    "Ġvague": 13443,
    "Ġbuffalo": 45019,
    "Ġpersuasion": 41784,
    "ĠSpartan": 34527,
    "ĠStefan": 28842,
    "kiss": 41304,
    "Ġunderdog": 44288,
    "Ġmuted": 38952,
    "Ġmurderers": 38313,
    "work": 1818,
    "ĠActions": 24439,
    "iquid": 6394,
    "Ġlash": 46967,
    "coins": 14624,
    "Ġbabe": 42666,
    "240": 16102,
    "Vers": 34947,
    "ĠConsulting": 41005,
    "ares": 3565,
    "oshop": 25444,
    "Eastern": 46109,
    "Ġailments": 42549,
    "ĠColour": 38773,
    "proc": 36942,
    "ĠAnalyst": 44600,
    "Ġfloppy": 49415,
    "ĠWis": 24884,
    "ĠAber": 27700,
    "Ġpiping": 48426,
    "Ġbarbar": 24837,
    "cher": 2044,
    "ĠGrounds": 44201,
    "ĠMIT": 17168,
    "eworthy": 25969,
    "ĠDiscount": 43474,
    "vent": 1151,
    "actly": 24342,
    "Jessica": 45572,
    "Ġcredited": 18141,
    "Ġhopping": 47153,
    "advertisement": 45876,
    "Ġintellig": 10878,
    "ĠBus": 5869,
    "Ġmoisture": 20160,
    "ĠHorse": 18455,
    "Basically": 31524,
    "Ġabuser": 46601,
    "Ġmuttered": 34042,
    "ĠManga": 27024,
    "ĠDivision": 7458,
    "031": 43637,
    "ĠBenef": 19899,
    "ined": 1389,
    "utenberg": 19028,
    "Mini": 39234,
    "Texture": 32742,
    "doi": 34023,
    "Ġfools": 37323,
    "OPER": 31054,
    "Marginal": 36003,
    "ighed": 12570,
    "ĠMonths": 37461,
    "Ġthreads": 14390,
    "Ġreuse": 32349,
    "ĠQC": 36070,
    "ĠPowerPoint": 43563,
    "Ġconstitute": 15613,
    "ĠYing": 38833,
    "Ġbadge": 23009,
    "endon": 43153,
    "Ġsect": 15951,
    "Ġinitiatives": 15446,
    "ĠILCS": 36169,
    "anism": 48162,
    "GR": 10761,
    "Ġrapp": 29106,
    "alde": 35885,
    "Ġinsecure": 31955,
    "pard": 26037,
    "Ġconcepts": 10838,
    "Ġtelephone": 11426,
    "minded": 14543,
    "ĠHouses": 34336,
    "ĠABOUT": 33478,
    "Ġslated": 23488,
    "rike": 8760,
    "tail": 13199,
    "ĠMast": 30868,
    "MAP": 33767,
    "Rust": 49444,
    "Ġcalendars": 50215,
    "ĠChurch": 4564,
    "rontal": 39321,
    "Ġjurisdictions": 25281,
    "ĠShortly": 27265,
    "sm": 5796,
    "Ġhumane": 31533,
    "ĠCooke": 46247,
    "Ġetc": 3503,
    "vre": 43933,
    "ĠBeet": 39040,
    "hoff": 36092,
    "ĠScottish": 11905,
    "Ġinjured": 6686,
    "ocity": 11683,
    "ĠDestination": 45657,
    "Ġla": 8591,
    "Ġphotograph": 8408,
    "ribute": 4163,
    "kil": 34553,
    "Ġeco": 34286,
    "418": 39667,
    "Ġexcitement": 14067,
    "artist": 49016,
    "said": 30079,
    "Ġrural": 10016,
    "Ġissu": 25731,
    "perfect": 25833,
    "Po": 18833,
    "ĠShoes": 41332,
    "ĠPharmaceutical": 37175,
    "Ġprohibiting": 30363,
    "ODY": 33076,
    "veh": 33892,
    "Ġdemocr": 5084,
    "Ġchilled": 45550,
    "Ġeyeb": 16067,
    "ĠChoi": 42198,
    "Ġbattery": 6555,
    "(&": 39434,
    "Ġembryonic": 49710,
    "ä½ľ": 43291,
    "Ġsarcast": 36543,
    "password": 28712,
    "351": 35273,
    "Ġstamina": 32312,
    "ĠHouth": 34271,
    "Ġanonymity": 18685,
    "Ġpredecessors": 27677,
    "yang": 17859,
    "unction": 4575,
    "thritis": 34043,
    "etition": 15620,
    "public": 11377,
    "803": 43564,
    "ĠPayments": 41318,
    "Ġadmit": 9159,
    "Ġper": 583,
    "ĠZero": 12169,
    "ĠErica": 45187,
    "static": 12708,
    ":\\": 7479,
    "Ġgoverns": 47049,
    "builders": 50034,
    "me": 1326,
    "Ġasthma": 28438,
    "Dim": 29271,
    "ĠContainer": 43101,
    "Ġcataly": 36745,
    "athered": 8638,
    "ĠSystems": 11998,
    "production": 25493,
    "Ġterribly": 22121,
    "ĠDeus": 37365,
    "Ġquer": 42517,
    "Ġrapport": 49498,
    "ĠPK": 29673,
    "ĠAlert": 23276,
    "ĠEagle": 18456,
    "omes": 2586,
    "ets": 1039,
    "Ġarchives": 22415,
    "ĠLibyan": 28661,
    "Ġstrategy": 4811,
    "god": 25344,
    "aphael": 34889,
    "ĠBuk": 36810,
    "Ġsummon": 11457,
    "Ġdevils": 42466,
    "ĠLevin": 32325,
    "menu": 26272,
    "Ġasserted": 21635,
    "Ġpoop": 40125,
    "Ġunderestimate": 34994,
    "Ġrenovated": 46353,
    "deal": 31769,
    "Ġignor": 11477,
    "Ġfootwear": 43463,
    "Ġjugg": 24873,
    "ĠVera": 44413,
    "ĠAre": 4231,
    "ĠWORK": 30936,
    "Ġopted": 18524,
    "Ġsensed": 39243,
    "Ġreserves": 14072,
    "oit": 30711,
    "Ġdistribute": 14983,
    "reshold": 10126,
    "ĠFei": 39575,
    "Ġbuffs": 34636,
    "Ġyo": 27406,
    "Ġamino": 23206,
    "Ġmelted": 24178,
    "Financial": 43621,
    "Else": 40674,
    "Position": 26545,
    "ĠGun": 6748,
    "Ġbleed": 30182,
    "Ġphased": 41716,
    "ĠNVIDIA": 15127,
    "falls": 23348,
    "Ġcir": 10774,
    "Choice": 46770,
    "GAN": 45028,
    "Ġdefic": 12630,
    "Shipping": 45169,
    "ĠEagles": 13785,
    "Ġcrippled": 38961,
    "episode": 38668,
    "Ġ200": 939,
    "Ġdarn": 39189,
    "ĠKarl": 15415,
    "lock": 5354,
    "Ġspent": 3377,
    "ĠRecall": 44536,
    "ĸ": 244,
    "Ġapplied": 5625,
    "Ġcontingency": 38820,
    "Table": 10962,
    "Ġstrains": 21245,
    "833": 48634,
    "models": 27530,
    "rals": 30691,
    "genre": 35850,
    "Ġdisembark": 46804,
    "Ġpret": 2181,
    "cre": 7513,
    "ĠBere": 37951,
    "Ġpip": 7347,
    "keeper": 13884,
    "ĠHegel": 38106,
    "Ġdexter": 44405,
    "ashtra": 38535,
    "urations": 20074,
    "ace": 558,
    "oust": 23968,
    "ĠWhich": 9022,
    "ĠDri": 5809,
    "ĠFlorence": 28537,
    "Ġchalk": 30860,
    "lords": 19673,
    "522": 49542,
    "ĠInvaders": 41671,
    "burst": 31961,
    "Ob": 5944,
    "Ġloophole": 35723,
    "Ġrun": 1057,
    "ĠExpand": 49368,
    "Ġdisproportion": 18717,
    "ĠRail": 12950,
    "Ġapple": 17180,
    "ĠActual": 33520,
    "ĠThrones": 20902,
    "Ġresident": 6623,
    "Ġdevelop": 1205,
    "icism": 11965,
    "Ġlittle": 1310,
    "ERC": 47691,
    "apache": 43073,
    "Ġ2002": 6244,
    "ĠGeneva": 20552,
    "ulic": 28575,
    "Ġadherent": 40971,
    "Ġuncommon": 19185,
    "Ġsubtitle": 37960,
    "Playing": 36530,
    "Ġreferencing": 32578,
    "Ġlamb": 19343,
    "ĠFaculty": 35262,
    "ĠGauntlet": 48941,
    "ĠHyd": 15084,
    "ĠDad": 17415,
    "Ġcousins": 28706,
    "Ġvs": 3691,
    "ĠJacksonville": 23194,
    "ather": 1032,
    "Ġstatic": 9037,
    "Ġrust": 17000,
    "ĠSignificant": 49631,
    "Ġcalibrated": 48050,
    "ĠBeat": 12568,
    "Ġmeasurements": 13871,
    "Currently": 21327,
    "SHIP": 49423,
    "Ġforeskin": 49877,
    "Ġfilmed": 18976,
    "Ġthorn": 38999,
    "Ġconferred": 39376,
    "315": 27936,
    "Ġefforts": 4040,
    "ĠExperimental": 32286,
    "ĠCLICK": 49583,
    "keeping": 19934,
    "ĠWCS": 45410,
    "Ġaffiliate": 17375,
    "ĠConj": 37587,
    "Ġoutburst": 49088,
    "Ġbilled": 33094,
    "Ġgreet": 12589,
    "Ġpardon": 27322,
    "rank": 43027,
    "ĠAad": 38746,
    "ĠMcKenzie": 44311,
    "herent": 8334,
    "_-": 22955,
    "ry": 563,
    "186": 25096,
    "ĠKashmir": 24664,
    "Ġpreced": 8555,
    "!'": 13679,
    "Father": 34823,
    "ĠSp": 1338,
    "abled": 4510,
    "Ġpopulation": 3265,
    "ĠMedical": 8366,
    "Abs": 24849,
    "friendly": 13120,
    "ĠEquity": 35659,
    "Ġpreserved": 17232,
    "ĠFiscal": 33522,
    "inkle": 19894,
    "Ġrejo": 30668,
    "ĠTriple": 19817,
    "slaught": 30929,
    "opes": 13920,
    "Ġlava": 28856,
    "Ġ737": 37517,
    "ĠChin": 22604,
    "Ġdid": 750,
    "Ġobligated": 31586,
    "ASE": 11159,
    "ĠKis": 30519,
    "'ll": 1183,
    "Ġdeliberately": 14593,
    "ĠFinder": 42500,
    "metics": 27757,
    "Ġpreceding": 18148,
    "ĠComm": 1520,
    "ĠPF": 28223,
    "AIDS": 39338,
    "Ġpedals": 42563,
    "Ġhandic": 29103,
    "armor": 40456,
    "ĠForensic": 49245,
    "ĠButt": 36041,
    "ĠDownload": 10472,
    "Ġpant": 15857,
    "Ma": 21467,
    "Ġse": 384,
    "Shield": 33651,
    "Ġlifestyle": 12263,
    "Ġdisks": 32505,
    "eni": 43850,
    "ĠJeanne": 48202,
    "Ġfight": 1907,
    "irted": 48357,
    "ilated": 40080,
    "Ġsovereign": 18901,
    "ĠSteal": 47242,
    "Ġattaches": 48262,
    "class": 4871,
    "Ġwielding": 33949,
    "Ġwidget": 26295,
    "Ġmats": 46054,
    "Ġduel": 24662,
    "ĠGore": 17557,
    "Ġnumb": 35519,
    "Ġkick": 4829,
    "enium": 47477,
    "ĠEsper": 42083,
    "ĠOsh": 46614,
    "catch": 40198,
    "Ġreviewer": 37823,
    "ĠJourney": 15120,
    "Welcome": 14618,
    "ĠPhillip": 29470,
    "ĠLaksh": 47382,
    "Ġgratitude": 24083,
    "ĠApp": 2034,
    "Ġfade": 22100,
    "Ġembr": 7726,
[...]
